{
  "version": "1.0",
  "truncation": null,
  "padding": null,
  "added_tokens": [
    {
      "id": 0,
      "content": "[UNK]",
      "single_word": false,
      "lstrip": false,
      "rstrip": false,
      "normalized": false,
      "special": true
    },
    {
      "id": 1,
      "content": "[CLS]",
      "single_word": false,
      "lstrip": false,
      "rstrip": false,
      "normalized": false,
      "special": true
    },
    {
      "id": 2,
      "content": "[SEP]",
      "single_word": false,
      "lstrip": false,
      "rstrip": false,
      "normalized": false,
      "special": true
    },
    {
      "id": 3,
      "content": "[PAD]",
      "single_word": false,
      "lstrip": false,
      "rstrip": false,
      "normalized": false,
      "special": true
    },
    {
      "id": 4,
      "content": "[MASK]",
      "single_word": false,
      "lstrip": false,
      "rstrip": false,
      "normalized": false,
      "special": true
    }
  ],
  "normalizer": null,
  "pre_tokenizer": null,
  "post_processor": null,
  "decoder": null,
  "model": {
    "type": "BPE",
    "dropout": null,
    "unk_token": null,
    "continuing_subword_prefix": null,
    "end_of_word_suffix": null,
    "fuse_unk": false,
    "vocab": {
      "[UNK]": 0,
      "[CLS]": 1,
      "[SEP]": 2,
      "[PAD]": 3,
      "[MASK]": 4,
      " ": 5,
      "!": 6,
      "\"": 7,
      "#": 8,
      "%": 9,
      "&": 10,
      "'": 11,
      "(": 12,
      ")": 13,
      "*": 14,
      "+": 15,
      ",": 16,
      "-": 17,
      ".": 18,
      "/": 19,
      "0": 20,
      "1": 21,
      "2": 22,
      "3": 23,
      "4": 24,
      "5": 25,
      "6": 26,
      "7": 27,
      "8": 28,
      "9": 29,
      ":": 30,
      ";": 31,
      "<": 32,
      "=": 33,
      ">": 34,
      "?": 35,
      "[": 36,
      "\\": 37,
      "]": 38,
      "^": 39,
      "`": 40,
      "a": 41,
      "b": 42,
      "c": 43,
      "d": 44,
      "e": 45,
      "f": 46,
      "g": 47,
      "h": 48,
      "i": 49,
      "j": 50,
      "k": 51,
      "l": 52,
      "m": 53,
      "n": 54,
      "o": 55,
      "p": 56,
      "q": 57,
      "r": 58,
      "s": 59,
      "t": 60,
      "u": 61,
      "v": 62,
      "w": 63,
      "x": 64,
      "y": 65,
      "z": 66,
      "{": 67,
      "|": 68,
      "}": 69,
      "~": 70,
      "": 71,
      " ": 72,
      "°": 73,
      "±": 74,
      "²": 75,
      "´": 76,
      "·": 77,
      "¹": 78,
      "ß": 79,
      "ó": 80,
      "ɑ": 81,
      "ˊ": 82,
      "́": 83,
      "α": 84,
      "β": 85,
      "γ": 86,
      "δ": 87,
      "ε": 88,
      "η": 89,
      "κ": 90,
      "λ": 91,
      "μ": 92,
      "τ": 93,
      "ψ": 94,
      "ω": 95,
      "а": 96,
      "​": 97,
      "–": 98,
      "—": 99,
      "―": 100,
      "‘": 101,
      "’": 102,
      "“": 103,
      "”": 104,
      "•": 105,
      "′": 106,
      "℃": 107,
      "ⅰ": 108,
      "ⅱ": 109,
      "ⅲ": 110,
      "ⅳ": 111,
      "ⅴ": 112,
      "ⅵ": 113,
      "ⅶ": 114,
      "→": 115,
      "−": 116,
      "≈": 117,
      "≤": 118,
      "≥": 119,
      "○": 120,
      "、": 121,
      "。": 122,
      "【": 123,
      "】": 124,
      "〔": 125,
      "〕": 126,
      "ㄚ": 127,
      "一": 128,
      "丁": 129,
      "七": 130,
      "三": 131,
      "上": 132,
      "下": 133,
      "不": 134,
      "世": 135,
      "丘": 136,
      "丙": 137,
      "並": 138,
      "丫": 139,
      "中": 140,
      "丸": 141,
      "丹": 142,
      "主": 143,
      "乃": 144,
      "久": 145,
      "之": 146,
      "乘": 147,
      "乙": 148,
      "九": 149,
      "也": 150,
      "乳": 151,
      "乾": 152,
      "亂": 153,
      "二": 154,
      "于": 155,
      "云": 156,
      "五": 157,
      "井": 158,
      "亞": 159,
      "亢": 160,
      "交": 161,
      "亨": 162,
      "京": 163,
      "亭": 164,
      "亮": 165,
      "人": 166,
      "什": 167,
      "仁": 168,
      "今": 169,
      "介": 170,
      "他": 171,
      "付": 172,
      "仙": 173,
      "代": 174,
      "令": 175,
      "以": 176,
      "仲": 177,
      "份": 178,
      "仿": 179,
      "企": 180,
      "伊": 181,
      "伍": 182,
      "伏": 183,
      "伐": 184,
      "休": 185,
      "伯": 186,
      "伴": 187,
      "伸": 188,
      "似": 189,
      "伽": 190,
      "但": 191,
      "佈": 192,
      "位": 193,
      "低": 194,
      "住": 195,
      "佐": 196,
      "余": 197,
      "佛": 198,
      "你": 199,
      "佩": 200,
      "佳": 201,
      "使": 202,
      "來": 203,
      "侖": 204,
      "供": 205,
      "依": 206,
      "侳": 207,
      "便": 208,
      "促": 209,
      "俄": 210,
      "保": 211,
      "俞": 212,
      "信": 213,
      "修": 214,
      "俾": 215,
      "個": 216,
      "倍": 217,
      "倒": 218,
      "倔": 219,
      "倫": 220,
      "值": 221,
      "假": 222,
      "偉": 223,
      "偏": 224,
      "偕": 225,
      "做": 226,
      "停": 227,
      "健": 228,
      "側": 229,
      "偶": 230,
      "偽": 231,
      "傅": 232,
      "傑": 233,
      "傘": 234,
      "催": 235,
      "傳": 236,
      "傷": 237,
      "僉": 238,
      "僧": 239,
      "僵": 240,
      "價": 241,
      "優": 242,
      "元": 243,
      "充": 244,
      "先": 245,
      "光": 246,
      "克": 247,
      "免": 248,
      "兒": 249,
      "兔": 250,
      "兜": 251,
      "入": 252,
      "內": 253,
      "全": 254,
      "兩": 255,
      "八": 256,
      "公": 257,
      "六": 258,
      "共": 259,
      "兵": 260,
      "其": 261,
      "具": 262,
      "典": 263,
      "内": 264,
      "冉": 265,
      "冠": 266,
      "冢": 267,
      "冬": 268,
      "冰": 269,
      "冶": 270,
      "冷": 271,
      "凈": 272,
      "凌": 273,
      "凍": 274,
      "凝": 275,
      "凡": 276,
      "凱": 277,
      "出": 278,
      "刀": 279,
      "刃": 280,
      "分": 281,
      "切": 282,
      "刈": 283,
      "刊": 284,
      "列": 285,
      "初": 286,
      "別": 287,
      "刨": 288,
      "利": 289,
      "制": 290,
      "刺": 291,
      "刻": 292,
      "則": 293,
      "剋": 294,
      "前": 295,
      "剎": 296,
      "剔": 297,
      "剛": 298,
      "副": 299,
      "割": 300,
      "創": 301,
      "劇": 302,
      "劈": 303,
      "劑": 304,
      "力": 305,
      "功": 306,
      "加": 307,
      "助": 308,
      "努": 309,
      "勁": 310,
      "勃": 311,
      "勒": 312,
      "動": 313,
      "勝": 314,
      "勞": 315,
      "勻": 316,
      "勿": 317,
      "包": 318,
      "化": 319,
      "北": 320,
      "匙": 321,
      "匡": 322,
      "匹": 323,
      "十": 324,
      "千": 325,
      "升": 326,
      "半": 327,
      "卑": 328,
      "卓": 329,
      "協": 330,
      "南": 331,
      "博": 332,
      "卜": 333,
      "卞": 334,
      "卟": 335,
      "占": 336,
      "卡": 337,
      "印": 338,
      "卵": 339,
      "卷": 340,
      "卻": 341,
      "厄": 342,
      "厚": 343,
      "原": 344,
      "厥": 345,
      "去": 346,
      "叁": 347,
      "參": 348,
      "又": 349,
      "叉": 350,
      "及": 351,
      "双": 352,
      "反": 353,
      "叔": 354,
      "取": 355,
      "受": 356,
      "口": 357,
      "古": 358,
      "另": 359,
      "叨": 360,
      "叫": 361,
      "可": 362,
      "台": 363,
      "史": 364,
      "右": 365,
      "司": 366,
      "各": 367,
      "合": 368,
      "吉": 369,
      "吊": 370,
      "同": 371,
      "名": 372,
      "后": 373,
      "吐": 374,
      "向": 375,
      "吖": 376,
      "君": 377,
      "吞": 378,
      "吡": 379,
      "吧": 380,
      "吩": 381,
      "含": 382,
      "吲": 383,
      "吳": 384,
      "吶": 385,
      "吸": 386,
      "呂": 387,
      "告": 388,
      "呋": 389,
      "呔": 390,
      "呢": 391,
      "呤": 392,
      "周": 393,
      "呫": 394,
      "呯": 395,
      "呱": 396,
      "呲": 397,
      "味": 398,
      "命": 399,
      "和": 400,
      "咐": 401,
      "咔": 402,
      "咕": 403,
      "咖": 404,
      "咢": 405,
      "咪": 406,
      "咯": 407,
      "咱": 408,
      "咳": 409,
      "品": 410,
      "哆": 411,
      "哇": 412,
      "哈": 413,
      "哌": 414,
      "哚": 415,
      "哢": 416,
      "哥": 417,
      "哦": 418,
      "哩": 419,
      "哪": 420,
      "哮": 421,
      "唇": 422,
      "唏": 423,
      "唑": 424,
      "唪": 425,
      "唾": 426,
      "商": 427,
      "啉": 428,
      "問": 429,
      "啞": 430,
      "啡": 431,
      "啤": 432,
      "啰": 433,
      "啶": 434,
      "喃": 435,
      "喋": 436,
      "喏": 437,
      "喔": 438,
      "喘": 439,
      "喜": 440,
      "喬": 441,
      "單": 442,
      "喹": 443,
      "嗅": 444,
      "嗎": 445,
      "嗒": 446,
      "嗜": 447,
      "嗡": 448,
      "嗪": 449,
      "嗯": 450,
      "嗶": 451,
      "嗽": 452,
      "嘉": 453,
      "嘌": 454,
      "嘧": 455,
      "嘴": 456,
      "嘿": 457,
      "噁": 458,
      "噌": 459,
      "噠": 460,
      "器": 461,
      "噴": 462,
      "噸": 463,
      "噻": 464,
      "噼": 465,
      "嚬": 466,
      "囉": 467,
      "囊": 468,
      "四": 469,
      "回": 470,
      "因": 471,
      "困": 472,
      "固": 473,
      "圃": 474,
      "圈": 475,
      "國": 476,
      "園": 477,
      "圓": 478,
      "團": 479,
      "圜": 480,
      "土": 481,
      "圣": 482,
      "在": 483,
      "地": 484,
      "均": 485,
      "坊": 486,
      "坎": 487,
      "坐": 488,
      "坡": 489,
      "坤": 490,
      "坦": 491,
      "垂": 492,
      "型": 493,
      "垢": 494,
      "埃": 495,
      "埋": 496,
      "培": 497,
      "基": 498,
      "堅": 499,
      "堆": 500,
      "堇": 501,
      "堊": 502,
      "堡": 503,
      "報": 504,
      "堿": 505,
      "塊": 506,
      "塑": 507,
      "塔": 508,
      "塞": 509,
      "塩": 510,
      "塵": 511,
      "增": 512,
      "墨": 513,
      "墩": 514,
      "壁": 515,
      "壓": 516,
      "壞": 517,
      "壟": 518,
      "壤": 519,
      "士": 520,
      "壬": 521,
      "壯": 522,
      "壽": 523,
      "外": 524,
      "多": 525,
      "夢": 526,
      "大": 527,
      "天": 528,
      "太": 529,
      "夫": 530,
      "失": 531,
      "夸": 532,
      "夾": 533,
      "奇": 534,
      "奈": 535,
      "奉": 536,
      "奎": 537,
      "套": 538,
      "奧": 539,
      "奪": 540,
      "奮": 541,
      "女": 542,
      "奴": 543,
      "奶": 544,
      "好": 545,
      "如": 546,
      "妊": 547,
      "妙": 548,
      "妥": 549,
      "姆": 550,
      "始": 551,
      "姜": 552,
      "姥": 553,
      "姬": 554,
      "姻": 555,
      "威": 556,
      "娘": 557,
      "娜": 558,
      "娠": 559,
      "婦": 560,
      "媒": 561,
      "嫁": 562,
      "嫩": 563,
      "子": 564,
      "孔": 565,
      "孕": 566,
      "字": 567,
      "孟": 568,
      "孢": 569,
      "季": 570,
      "學": 571,
      "它": 572,
      "宇": 573,
      "安": 574,
      "完": 575,
      "宕": 576,
      "宗": 577,
      "官": 578,
      "定": 579,
      "宜": 580,
      "客": 581,
      "室": 582,
      "宮": 583,
      "容": 584,
      "密": 585,
      "富": 586,
      "寡": 587,
      "實": 588,
      "寧": 589,
      "寶": 590,
      "寸": 591,
      "对": 592,
      "封": 593,
      "射": 594,
      "專": 595,
      "對": 596,
      "導": 597,
      "小": 598,
      "尖": 599,
      "尤": 600,
      "尸": 601,
      "尹": 602,
      "尻": 603,
      "尼": 604,
      "尾": 605,
      "尿": 606,
      "屈": 607,
      "屍": 608,
      "屑": 609,
      "展": 610,
      "屠": 611,
      "層": 612,
      "屬": 613,
      "山": 614,
      "岐": 615,
      "岡": 616,
      "岩": 617,
      "峰": 618,
      "島": 619,
      "崔": 620,
      "崗": 621,
      "崩": 622,
      "崳": 623,
      "嵌": 624,
      "嵐": 625,
      "嶺": 626,
      "巖": 627,
      "川": 628,
      "工": 629,
      "左": 630,
      "巧": 631,
      "巨": 632,
      "差": 633,
      "巰": 634,
      "己": 635,
      "已": 636,
      "巴": 637,
      "布": 638,
      "希": 639,
      "帕": 640,
      "帶": 641,
      "常": 642,
      "帽": 643,
      "干": 644,
      "平": 645,
      "年": 646,
      "并": 647,
      "幹": 648,
      "幼": 649,
      "幾": 650,
      "床": 651,
      "底": 652,
      "庖": 653,
      "庚": 654,
      "度": 655,
      "座": 656,
      "庫": 657,
      "康": 658,
      "廟": 659,
      "廣": 660,
      "延": 661,
      "建": 662,
      "廿": 663,
      "弄": 664,
      "式": 665,
      "引": 666,
      "弗": 667,
      "弛": 668,
      "弱": 669,
      "張": 670,
      "強": 671,
      "彈": 672,
      "彌": 673,
      "形": 674,
      "彩": 675,
      "影": 676,
      "待": 677,
      "律": 678,
      "得": 679,
      "復": 680,
      "微": 681,
      "德": 682,
      "心": 683,
      "必": 684,
      "忌": 685,
      "忍": 686,
      "快": 687,
      "怕": 688,
      "思": 689,
      "性": 690,
      "恩": 691,
      "恬": 692,
      "息": 693,
      "悅": 694,
      "悉": 695,
      "患": 696,
      "惑": 697,
      "惕": 698,
      "惠": 699,
      "惡": 700,
      "惰": 701,
      "愈": 702,
      "愛": 703,
      "感": 704,
      "態": 705,
      "慮": 706,
      "慶": 707,
      "憂": 708,
      "懈": 709,
      "應": 710,
      "懸": 711,
      "戈": 712,
      "戊": 713,
      "戌": 714,
      "戍": 715,
      "成": 716,
      "戒": 717,
      "或": 718,
      "戟": 719,
      "戴": 720,
      "戶": 721,
      "房": 722,
      "所": 723,
      "扁": 724,
      "扇": 725,
      "手": 726,
      "扎": 727,
      "打": 728,
      "托": 729,
      "扣": 730,
      "扭": 731,
      "扶": 732,
      "技": 733,
      "抑": 734,
      "抗": 735,
      "折": 736,
      "披": 737,
      "抽": 738,
      "拆": 739,
      "拉": 740,
      "拋": 741,
      "拌": 742,
      "拍": 743,
      "拓": 744,
      "拔": 745,
      "拜": 746,
      "括": 747,
      "拮": 748,
      "拾": 749,
      "拿": 750,
      "持": 751,
      "指": 752,
      "按": 753,
      "捉": 754,
      "捌": 755,
      "捕": 756,
      "换": 757,
      "捷": 758,
      "捻": 759,
      "掌": 760,
      "排": 761,
      "掘": 762,
      "掛": 763,
      "探": 764,
      "接": 765,
      "提": 766,
      "揚": 767,
      "換": 768,
      "握": 769,
      "摩": 770,
      "摻": 771,
      "撐": 772,
      "撒": 773,
      "撥": 774,
      "撲": 775,
      "撻": 776,
      "擂": 777,
      "擇": 778,
      "擋": 779,
      "擔": 780,
      "據": 781,
      "擴": 782,
      "擾": 783,
      "攉": 784,
      "攏": 785,
      "攪": 786,
      "支": 787,
      "收": 788,
      "改": 789,
      "放": 790,
      "故": 791,
      "效": 792,
      "敏": 793,
      "敗": 794,
      "散": 795,
      "整": 796,
      "敵": 797,
      "數": 798,
      "文": 799,
      "斐": 800,
      "斑": 801,
      "料": 802,
      "斯": 803,
      "新": 804,
      "方": 805,
      "於": 806,
      "施": 807,
      "旁": 808,
      "旅": 809,
      "旋": 810,
      "族": 811,
      "旗": 812,
      "日": 813,
      "旦": 814,
      "早": 815,
      "旭": 816,
      "旱": 817,
      "旺": 818,
      "昂": 819,
      "昆": 820,
      "明": 821,
      "易": 822,
      "昔": 823,
      "星": 824,
      "映": 825,
      "春": 826,
      "是": 827,
      "時": 828,
      "晚": 829,
      "普": 830,
      "景": 831,
      "晴": 832,
      "晶": 833,
      "智": 834,
      "暈": 835,
      "暴": 836,
      "曙": 837,
      "曬": 838,
      "曲": 839,
      "更": 840,
      "曼": 841,
      "替": 842,
      "最": 843,
      "月": 844,
      "有": 845,
      "朊": 846,
      "朋": 847,
      "服": 848,
      "朗": 849,
      "朝": 850,
      "木": 851,
      "末": 852,
      "本": 853,
      "札": 854,
      "朱": 855,
      "朵": 856,
      "杉": 857,
      "李": 858,
      "杏": 859,
      "材": 860,
      "杖": 861,
      "杜": 862,
      "杧": 863,
      "杯": 864,
      "杰": 865,
      "東": 866,
      "松": 867,
      "板": 868,
      "枋": 869,
      "析": 870,
      "林": 871,
      "果": 872,
      "枝": 873,
      "枧": 874,
      "枯": 875,
      "枸": 876,
      "柁": 877,
      "柄": 878,
      "柏": 879,
      "柑": 880,
      "染": 881,
      "柔": 882,
      "柚": 883,
      "柞": 884,
      "柠": 885,
      "查": 886,
      "柬": 887,
      "柯": 888,
      "柰": 889,
      "柱": 890,
      "柳": 891,
      "柴": 892,
      "柿": 893,
      "栓": 894,
      "栗": 895,
      "栲": 896,
      "核": 897,
      "根": 898,
      "格": 899,
      "桂": 900,
      "桃": 901,
      "框": 902,
      "桉": 903,
      "桐": 904,
      "桑": 905,
      "桔": 906,
      "桿": 907,
      "梅": 908,
      "梓": 909,
      "梔": 910,
      "梗": 911,
      "條": 912,
      "梧": 913,
      "梨": 914,
      "梭": 915,
      "梯": 916,
      "棉": 917,
      "棒": 918,
      "棓": 919,
      "棕": 920,
      "棗": 921,
      "棘": 922,
      "棠": 923,
      "森": 924,
      "棱": 925,
      "植": 926,
      "椎": 927,
      "椏": 928,
      "椒": 929,
      "椰": 930,
      "椴": 931,
      "椽": 932,
      "楂": 933,
      "楊": 934,
      "楓": 935,
      "楝": 936,
      "楠": 937,
      "業": 938,
      "極": 939,
      "楸": 940,
      "概": 941,
      "榆": 942,
      "榔": 943,
      "榛": 944,
      "榭": 945,
      "榴": 946,
      "構": 947,
      "槍": 948,
      "槐": 949,
      "槲": 950,
      "樂": 951,
      "樅": 952,
      "標": 953,
      "樟": 954,
      "模": 955,
      "樣": 956,
      "樨": 957,
      "樸": 958,
      "樹": 959,
      "樺": 960,
      "橄": 961,
      "橋": 962,
      "橘": 963,
      "橙": 964,
      "機": 965,
      "橡": 966,
      "橢": 967,
      "檀": 968,
      "檉": 969,
      "檗": 970,
      "檜": 971,
      "檞": 972,
      "檬": 973,
      "檳": 974,
      "檸": 975,
      "櫚": 976,
      "櫞": 977,
      "櫟": 978,
      "櫻": 979,
      "欖": 980,
      "次": 981,
      "欣": 982,
      "歌": 983,
      "歐": 984,
      "歡": 985,
      "止": 986,
      "正": 987,
      "步": 988,
      "歧": 989,
      "歸": 990,
      "死": 991,
      "殖": 992,
      "殘": 993,
      "段": 994,
      "殺": 995,
      "殼": 996,
      "毆": 997,
      "母": 998,
      "毒": 999,
      "比": 1000,
      "毗": 1001,
      "毛": 1002,
      "氏": 1003,
      "氐": 1004,
      "民": 1005,
      "氖": 1006,
      "氘": 1007,
      "氙": 1008,
      "氚": 1009,
      "氟": 1010,
      "氡": 1011,
      "氢": 1012,
      "氣": 1013,
      "氦": 1014,
      "氧": 1015,
      "氨": 1016,
      "氪": 1017,
      "氫": 1018,
      "氬": 1019,
      "氮": 1020,
      "氯": 1021,
      "氰": 1022,
      "水": 1023,
      "永": 1024,
      "汀": 1025,
      "汁": 1026,
      "汞": 1027,
      "汰": 1028,
      "決": 1029,
      "汽": 1030,
      "沃": 1031,
      "沈": 1032,
      "沉": 1033,
      "沐": 1034,
      "沒": 1035,
      "沖": 1036,
      "沙": 1037,
      "沫": 1038,
      "河": 1039,
      "沸": 1040,
      "油": 1041,
      "治": 1042,
      "泊": 1043,
      "泌": 1044,
      "法": 1045,
      "泛": 1046,
      "泡": 1047,
      "波": 1048,
      "注": 1049,
      "泮": 1050,
      "泰": 1051,
      "泳": 1052,
      "洋": 1053,
      "洗": 1054,
      "洛": 1055,
      "洞": 1056,
      "津": 1057,
      "洪": 1058,
      "洲": 1059,
      "活": 1060,
      "洼": 1061,
      "派": 1062,
      "流": 1063,
      "浦": 1064,
      "浪": 1065,
      "浮": 1066,
      "海": 1067,
      "浸": 1068,
      "涂": 1069,
      "消": 1070,
      "涎": 1071,
      "涕": 1072,
      "液": 1073,
      "涼": 1074,
      "淋": 1075,
      "淚": 1076,
      "淡": 1077,
      "淨": 1078,
      "淫": 1079,
      "深": 1080,
      "混": 1081,
      "淺": 1082,
      "添": 1083,
      "清": 1084,
      "減": 1085,
      "渣": 1086,
      "渥": 1087,
      "測": 1088,
      "游": 1089,
      "湖": 1090,
      "源": 1091,
      "準": 1092,
      "溫": 1093,
      "溴": 1094,
      "溶": 1095,
      "滅": 1096,
      "滌": 1097,
      "滑": 1098,
      "滲": 1099,
      "滴": 1100,
      "滿": 1101,
      "漂": 1102,
      "漆": 1103,
      "漢": 1104,
      "漬": 1105,
      "漿": 1106,
      "潑": 1107,
      "潔": 1108,
      "潘": 1109,
      "潤": 1110,
      "潮": 1111,
      "潰": 1112,
      "澄": 1113,
      "澡": 1114,
      "澤": 1115,
      "澱": 1116,
      "澳": 1117,
      "激": 1118,
      "濃": 1119,
      "濕": 1120,
      "濱": 1121,
      "濺": 1122,
      "瀉": 1123,
      "瀝": 1124,
      "灌": 1125,
      "灑": 1126,
      "火": 1127,
      "灰": 1128,
      "炎": 1129,
      "炒": 1130,
      "炔": 1131,
      "炭": 1132,
      "炮": 1133,
      "炳": 1134,
      "炸": 1135,
      "為": 1136,
      "烏": 1137,
      "烙": 1138,
      "烯": 1139,
      "烴": 1140,
      "烷": 1141,
      "焙": 1142,
      "無": 1143,
      "焦": 1144,
      "然": 1145,
      "煅": 1146,
      "煉": 1147,
      "煌": 1148,
      "煙": 1149,
      "煤": 1150,
      "照": 1151,
      "煮": 1152,
      "煻": 1153,
      "熊": 1154,
      "熏": 1155,
      "熒": 1156,
      "熔": 1157,
      "熟": 1158,
      "熱": 1159,
      "燃": 1160,
      "燈": 1161,
      "燒": 1162,
      "燕": 1163,
      "燙": 1164,
      "燥": 1165,
      "燦": 1166,
      "燭": 1167,
      "燻": 1168,
      "燼": 1169,
      "爆": 1170,
      "爐": 1171,
      "爛": 1172,
      "爪": 1173,
      "爾": 1174,
      "片": 1175,
      "版": 1176,
      "牌": 1177,
      "牙": 1178,
      "牛": 1179,
      "牡": 1180,
      "牢": 1181,
      "牧": 1182,
      "物": 1183,
      "牲": 1184,
      "特": 1185,
      "牻": 1186,
      "牽": 1187,
      "犀": 1188,
      "犁": 1189,
      "犬": 1190,
      "狀": 1191,
      "狄": 1192,
      "狗": 1193,
      "狹": 1194,
      "猛": 1195,
      "猩": 1196,
      "獐": 1197,
      "獨": 1198,
      "獲": 1199,
      "獸": 1200,
      "玄": 1201,
      "玉": 1202,
      "王": 1203,
      "玖": 1204,
      "玫": 1205,
      "环": 1206,
      "玻": 1207,
      "珀": 1208,
      "珊": 1209,
      "珍": 1210,
      "珠": 1211,
      "班": 1212,
      "現": 1213,
      "球": 1214,
      "理": 1215,
      "琉": 1216,
      "琥": 1217,
      "琳": 1218,
      "瑚": 1219,
      "瑞": 1220,
      "瑟": 1221,
      "瑣": 1222,
      "瑪": 1223,
      "瑰": 1224,
      "璃": 1225,
      "璊": 1226,
      "璜": 1227,
      "環": 1228,
      "瓊": 1229,
      "瓜": 1230,
      "瓦": 1231,
      "瓶": 1232,
      "瓷": 1233,
      "甕": 1234,
      "甘": 1235,
      "甙": 1236,
      "甜": 1237,
      "生": 1238,
      "產": 1239,
      "用": 1240,
      "甫": 1241,
      "田": 1242,
      "由": 1243,
      "甲": 1244,
      "甾": 1245,
      "畏": 1246,
      "留": 1247,
      "畜": 1248,
      "畝": 1249,
      "畢": 1250,
      "番": 1251,
      "異": 1252,
      "當": 1253,
      "疊": 1254,
      "疏": 1255,
      "疫": 1256,
      "疾": 1257,
      "病": 1258,
      "痙": 1259,
      "痛": 1260,
      "痢": 1261,
      "痰": 1262,
      "瘋": 1263,
      "瘍": 1264,
      "瘟": 1265,
      "瘡": 1266,
      "瘤": 1267,
      "瘧": 1268,
      "療": 1269,
      "癆": 1270,
      "癌": 1271,
      "癎": 1272,
      "癒": 1273,
      "癬": 1274,
      "癲": 1275,
      "癸": 1276,
      "登": 1277,
      "發": 1278,
      "白": 1279,
      "百": 1280,
      "皂": 1281,
      "的": 1282,
      "皇": 1283,
      "皓": 1284,
      "皮": 1285,
      "盆": 1286,
      "益": 1287,
      "盞": 1288,
      "盡": 1289,
      "盤": 1290,
      "盧": 1291,
      "直": 1292,
      "相": 1293,
      "盼": 1294,
      "省": 1295,
      "眉": 1296,
      "真": 1297,
      "眠": 1298,
      "眼": 1299,
      "眾": 1300,
      "睛": 1301,
      "睡": 1302,
      "睪": 1303,
      "瞇": 1304,
      "瞞": 1305,
      "瞬": 1306,
      "瞵": 1307,
      "矛": 1308,
      "矢": 1309,
      "知": 1310,
      "短": 1311,
      "矮": 1312,
      "石": 1313,
      "矽": 1314,
      "砂": 1315,
      "砒": 1316,
      "研": 1317,
      "砜": 1318,
      "破": 1319,
      "砷": 1320,
      "硅": 1321,
      "硇": 1322,
      "硌": 1323,
      "硒": 1324,
      "硝": 1325,
      "硫": 1326,
      "硬": 1327,
      "硼": 1328,
      "碄": 1329,
      "碇": 1330,
      "碎": 1331,
      "碘": 1332,
      "碟": 1333,
      "碧": 1334,
      "碲": 1335,
      "碳": 1336,
      "碸": 1337,
      "確": 1338,
      "磁": 1339,
      "磨": 1340,
      "磷": 1341,
      "磺": 1342,
      "礎": 1343,
      "礦": 1344,
      "礬": 1345,
      "示": 1346,
      "神": 1347,
      "祿": 1348,
      "禁": 1349,
      "福": 1350,
      "禽": 1351,
      "禾": 1352,
      "秀": 1353,
      "秋": 1354,
      "科": 1355,
      "秘": 1356,
      "秦": 1357,
      "移": 1358,
      "稀": 1359,
      "程": 1360,
      "稗": 1361,
      "稠": 1362,
      "種": 1363,
      "稱": 1364,
      "稻": 1365,
      "穀": 1366,
      "積": 1367,
      "穗": 1368,
      "穩": 1369,
      "穫": 1370,
      "穴": 1371,
      "究": 1372,
      "空": 1373,
      "穿": 1374,
      "突": 1375,
      "窗": 1376,
      "窯": 1377,
      "立": 1378,
      "章": 1379,
      "端": 1380,
      "竹": 1381,
      "竺": 1382,
      "笑": 1383,
      "笨": 1384,
      "第": 1385,
      "笳": 1386,
      "等": 1387,
      "筋": 1388,
      "筑": 1389,
      "筒": 1390,
      "箔": 1391,
      "管": 1392,
      "箭": 1393,
      "節": 1394,
      "篦": 1395,
      "篩": 1396,
      "簏": 1397,
      "簡": 1398,
      "籃": 1399,
      "籠": 1400,
      "米": 1401,
      "籽": 1402,
      "粉": 1403,
      "粒": 1404,
      "粗": 1405,
      "粘": 1406,
      "粟": 1407,
      "粥": 1408,
      "粼": 1409,
      "精": 1410,
      "糊": 1411,
      "糖": 1412,
      "糜": 1413,
      "糞": 1414,
      "糠": 1415,
      "系": 1416,
      "約": 1417,
      "紅": 1418,
      "紋": 1419,
      "納": 1420,
      "紐": 1421,
      "純": 1422,
      "紗": 1423,
      "紙": 1424,
      "級": 1425,
      "素": 1426,
      "紡": 1427,
      "索": 1428,
      "紫": 1429,
      "累": 1430,
      "細": 1431,
      "終": 1432,
      "組": 1433,
      "結": 1434,
      "絕": 1435,
      "絡": 1436,
      "絮": 1437,
      "統": 1438,
      "絲": 1439,
      "絳": 1440,
      "經": 1441,
      "綜": 1442,
      "綠": 1443,
      "維": 1444,
      "網": 1445,
      "綸": 1446,
      "綿": 1447,
      "緊": 1448,
      "線": 1449,
      "緣": 1450,
      "緩": 1451,
      "縮": 1452,
      "縷": 1453,
      "總": 1454,
      "繁": 1455,
      "織": 1456,
      "繞": 1457,
      "繡": 1458,
      "纈": 1459,
      "纖": 1460,
      "红": 1461,
      "缩": 1462,
      "罌": 1463,
      "罡": 1464,
      "置": 1465,
      "羅": 1466,
      "羈": 1467,
      "羊": 1468,
      "美": 1469,
      "羞": 1470,
      "群": 1471,
      "羥": 1472,
      "羧": 1473,
      "羫": 1474,
      "羰": 1475,
      "羹": 1476,
      "羽": 1477,
      "翁": 1478,
      "翅": 1479,
      "習": 1480,
      "翠": 1481,
      "翹": 1482,
      "老": 1483,
      "考": 1484,
      "而": 1485,
      "耐": 1486,
      "耒": 1487,
      "耕": 1488,
      "耙": 1489,
      "耦": 1490,
      "耳": 1491,
      "聚": 1492,
      "聯": 1493,
      "聲": 1494,
      "肆": 1495,
      "肉": 1496,
      "肌": 1497,
      "肝": 1498,
      "肟": 1499,
      "肥": 1500,
      "肪": 1501,
      "肯": 1502,
      "育": 1503,
      "肺": 1504,
      "肼": 1505,
      "肽": 1506,
      "胂": 1507,
      "胃": 1508,
      "胍": 1509,
      "胖": 1510,
      "胚": 1511,
      "胜": 1512,
      "胞": 1513,
      "胡": 1514,
      "胨": 1515,
      "胩": 1516,
      "胭": 1517,
      "胯": 1518,
      "胰": 1519,
      "胱": 1520,
      "胲": 1521,
      "胸": 1522,
      "胺": 1523,
      "胼": 1524,
      "能": 1525,
      "脂": 1526,
      "脈": 1527,
      "脊": 1528,
      "脒": 1529,
      "脢": 1530,
      "脫": 1531,
      "脯": 1532,
      "脱": 1533,
      "脲": 1534,
      "腈": 1535,
      "腎": 1536,
      "腐": 1537,
      "腔": 1538,
      "腖": 1539,
      "腙": 1540,
      "腦": 1541,
      "腫": 1542,
      "腰": 1543,
      "腳": 1544,
      "腸": 1545,
      "腺": 1546,
      "膀": 1547,
      "膏": 1548,
      "膚": 1549,
      "膜": 1550,
      "膠": 1551,
      "膦": 1552,
      "膨": 1553,
      "膳": 1554,
      "膽": 1555,
      "膿": 1556,
      "臘": 1557,
      "臜": 1558,
      "臢": 1559,
      "臧": 1560,
      "自": 1561,
      "臭": 1562,
      "至": 1563,
      "致": 1564,
      "臺": 1565,
      "臼": 1566,
      "與": 1567,
      "興": 1568,
      "舌": 1569,
      "舍": 1570,
      "舎": 1571,
      "舒": 1572,
      "艮": 1573,
      "良": 1574,
      "色": 1575,
      "艷": 1576,
      "艸": 1577,
      "艹": 1578,
      "艽": 1579,
      "艾": 1580,
      "艿": 1581,
      "芊": 1582,
      "芋": 1583,
      "芍": 1584,
      "芎": 1585,
      "芐": 1586,
      "芑": 1587,
      "芒": 1588,
      "芘": 1589,
      "芙": 1590,
      "芝": 1591,
      "芥": 1592,
      "芨": 1593,
      "芩": 1594,
      "芪": 1595,
      "芫": 1596,
      "芬": 1597,
      "芭": 1598,
      "芯": 1599,
      "花": 1600,
      "芳": 1601,
      "芴": 1602,
      "芷": 1603,
      "芸": 1604,
      "芹": 1605,
      "芽": 1606,
      "苄": 1607,
      "苊": 1608,
      "苓": 1609,
      "苔": 1610,
      "苛": 1611,
      "苜": 1612,
      "苝": 1613,
      "苡": 1614,
      "苣": 1615,
      "若": 1616,
      "苦": 1617,
      "苧": 1618,
      "苯": 1619,
      "英": 1620,
      "苷": 1621,
      "茀": 1622,
      "茂": 1623,
      "茄": 1624,
      "茅": 1625,
      "茉": 1626,
      "茋": 1627,
      "茗": 1628,
      "茚": 1629,
      "茜": 1630,
      "茨": 1631,
      "茬": 1632,
      "茯": 1633,
      "茱": 1634,
      "茲": 1635,
      "茴": 1636,
      "茵": 1637,
      "茶": 1638,
      "草": 1639,
      "荊": 1640,
      "荒": 1641,
      "荷": 1642,
      "荼": 1643,
      "荽": 1644,
      "莉": 1645,
      "莎": 1646,
      "莓": 1647,
      "莠": 1648,
      "莢": 1649,
      "莧": 1650,
      "莨": 1651,
      "莫": 1652,
      "莰": 1653,
      "莽": 1654,
      "菁": 1655,
      "菇": 1656,
      "菊": 1657,
      "菌": 1658,
      "菔": 1659,
      "菖": 1660,
      "菜": 1661,
      "菠": 1662,
      "菪": 1663,
      "華": 1664,
      "菲": 1665,
      "菸": 1666,
      "萃": 1667,
      "萄": 1668,
      "萊": 1669,
      "萎": 1670,
      "萘": 1671,
      "萜": 1672,
      "萬": 1673,
      "萮": 1674,
      "萸": 1675,
      "萼": 1676,
      "落": 1677,
      "葉": 1678,
      "葑": 1679,
      "葒": 1680,
      "著": 1681,
      "葛": 1682,
      "葡": 1683,
      "葫": 1684,
      "葵": 1685,
      "葸": 1686,
      "蒂": 1687,
      "蒄": 1688,
      "蒈": 1689,
      "蒎": 1690,
      "蒙": 1691,
      "蒜": 1692,
      "蒡": 1693,
      "蒲": 1694,
      "蒸": 1695,
      "蒺": 1696,
      "蒼": 1697,
      "蒽": 1698,
      "蒿": 1699,
      "蓄": 1700,
      "蓊": 1701,
      "蓋": 1702,
      "蓍": 1703,
      "蓖": 1704,
      "蓬": 1705,
      "蓮": 1706,
      "蓽": 1707,
      "蓿": 1708,
      "蔓": 1709,
      "蔔": 1710,
      "蔗": 1711,
      "蔘": 1712,
      "蔚": 1713,
      "蔡": 1714,
      "蔥": 1715,
      "蔬": 1716,
      "蔻": 1717,
      "蕃": 1718,
      "蕈": 1719,
      "蕉": 1720,
      "蕊": 1721,
      "蕓": 1722,
      "蕪": 1723,
      "蕷": 1724,
      "薁": 1725,
      "薄": 1726,
      "薇": 1727,
      "薈": 1728,
      "薊": 1729,
      "薏": 1730,
      "薑": 1731,
      "薔": 1732,
      "薛": 1733,
      "薟": 1734,
      "薩": 1735,
      "薯": 1736,
      "薰": 1737,
      "藁": 1738,
      "藍": 1739,
      "藏": 1740,
      "藜": 1741,
      "藤": 1742,
      "藥": 1743,
      "藻": 1744,
      "藿": 1745,
      "蘆": 1746,
      "蘇": 1747,
      "蘋": 1748,
      "蘑": 1749,
      "蘚": 1750,
      "蘭": 1751,
      "蘿": 1752,
      "虌": 1753,
      "虎": 1754,
      "處": 1755,
      "號": 1756,
      "虫": 1757,
      "虱": 1758,
      "蚊": 1759,
      "蚜": 1760,
      "蚧": 1761,
      "蚨": 1762,
      "蚩": 1763,
      "蛇": 1764,
      "蛋": 1765,
      "蛔": 1766,
      "蛙": 1767,
      "蜀": 1768,
      "蜂": 1769,
      "蜍": 1770,
      "蜚": 1771,
      "蜜": 1772,
      "蜞": 1773,
      "蜱": 1774,
      "蝕": 1775,
      "蝥": 1776,
      "蝨": 1777,
      "蝶": 1778,
      "螟": 1779,
      "螢": 1780,
      "螨": 1781,
      "螯": 1782,
      "螺": 1783,
      "蟎": 1784,
      "蟛": 1785,
      "蟬": 1786,
      "蟯": 1787,
      "蟲": 1788,
      "蟹": 1789,
      "蟻": 1790,
      "蟾": 1791,
      "蠅": 1792,
      "蠊": 1793,
      "蠕": 1794,
      "蠟": 1795,
      "蠣": 1796,
      "蠶": 1797,
      "血": 1798,
      "行": 1799,
      "衍": 1800,
      "術": 1801,
      "衛": 1802,
      "衡": 1803,
      "衣": 1804,
      "表": 1805,
      "衰": 1806,
      "袂": 1807,
      "袍": 1808,
      "裂": 1809,
      "裏": 1810,
      "裕": 1811,
      "補": 1812,
      "裝": 1813,
      "製": 1814,
      "複": 1815,
      "褐": 1816,
      "褪": 1817,
      "西": 1818,
      "要": 1819,
      "覆": 1820,
      "見": 1821,
      "規": 1822,
      "覓": 1823,
      "視": 1824,
      "親": 1825,
      "觀": 1826,
      "角": 1827,
      "解": 1828,
      "觸": 1829,
      "訂": 1830,
      "計": 1831,
      "託": 1832,
      "記": 1833,
      "設": 1834,
      "試": 1835,
      "詹": 1836,
      "誘": 1837,
      "誤": 1838,
      "調": 1839,
      "請": 1840,
      "諤": 1841,
      "諾": 1842,
      "謝": 1843,
      "譜": 1844,
      "護": 1845,
      "變": 1846,
      "谷": 1847,
      "豆": 1848,
      "豐": 1849,
      "豚": 1850,
      "象": 1851,
      "豨": 1852,
      "豬": 1853,
      "豯": 1854,
      "貝": 1855,
      "貞": 1856,
      "負": 1857,
      "貨": 1858,
      "貫": 1859,
      "貳": 1860,
      "買": 1861,
      "費": 1862,
      "貽": 1863,
      "賀": 1864,
      "賁": 1865,
      "賓": 1866,
      "賜": 1867,
      "質": 1868,
      "賴": 1869,
      "賽": 1870,
      "贊": 1871,
      "赤": 1872,
      "赫": 1873,
      "赭": 1874,
      "起": 1875,
      "超": 1876,
      "越": 1877,
      "趕": 1878,
      "足": 1879,
      "路": 1880,
      "蹄": 1881,
      "蹤": 1882,
      "車": 1883,
      "軍": 1884,
      "軛": 1885,
      "軟": 1886,
      "軸": 1887,
      "載": 1888,
      "輔": 1889,
      "輕": 1890,
      "輝": 1891,
      "輥": 1892,
      "輪": 1893,
      "輸": 1894,
      "轉": 1895,
      "辛": 1896,
      "辟": 1897,
      "辣": 1898,
      "農": 1899,
      "近": 1900,
      "迦": 1901,
      "迪": 1902,
      "迫": 1903,
      "迭": 1904,
      "迷": 1905,
      "追": 1906,
      "退": 1907,
      "逆": 1908,
      "透": 1909,
      "逐": 1910,
      "通": 1911,
      "速": 1912,
      "造": 1913,
      "連": 1914,
      "進": 1915,
      "運": 1916,
      "遍": 1917,
      "過": 1918,
      "道": 1919,
      "達": 1920,
      "遜": 1921,
      "遞": 1922,
      "適": 1923,
      "選": 1924,
      "遺": 1925,
      "避": 1926,
      "邁": 1927,
      "還": 1928,
      "那": 1929,
      "邦": 1930,
      "郁": 1931,
      "郎": 1932,
      "郡": 1933,
      "部": 1934,
      "鄧": 1935,
      "鄰": 1936,
      "酊": 1937,
      "配": 1938,
      "酐": 1939,
      "酒": 1940,
      "酚": 1941,
      "酜": 1942,
      "酞": 1943,
      "酣": 1944,
      "酪": 1945,
      "酮": 1946,
      "酯": 1947,
      "酰": 1948,
      "酵": 1949,
      "酶": 1950,
      "酷": 1951,
      "酸": 1952,
      "醇": 1953,
      "醉": 1954,
      "醋": 1955,
      "醌": 1956,
      "醒": 1957,
      "醚": 1958,
      "醛": 1959,
      "醢": 1960,
      "醣": 1961,
      "醬": 1962,
      "醯": 1963,
      "釋": 1964,
      "里": 1965,
      "重": 1966,
      "野": 1967,
      "量": 1968,
      "金": 1969,
      "釓": 1970,
      "釔": 1971,
      "釕": 1972,
      "釙": 1973,
      "針": 1974,
      "釤": 1975,
      "釩": 1976,
      "釷": 1977,
      "釹": 1978,
      "鈀": 1979,
      "鈉": 1980,
      "鈣": 1981,
      "鈥": 1982,
      "鈦": 1983,
      "鈧": 1984,
      "鈮": 1985,
      "鈰": 1986,
      "鈴": 1987,
      "鈷": 1988,
      "鈹": 1989,
      "鈽": 1990,
      "鈾": 1991,
      "鉀": 1992,
      "鉆": 1993,
      "鉈": 1994,
      "鉍": 1995,
      "鉑": 1996,
      "鉕": 1997,
      "鉚": 1998,
      "鉛": 1999,
      "鉤": 2000,
      "鉬": 2001,
      "鉭": 2002,
      "鉮": 2003,
      "鉲": 2004,
      "鉺": 2005,
      "鉻": 2006,
      "鉿": 2007,
      "銀": 2008,
      "銅": 2009,
      "銓": 2010,
      "銠": 2011,
      "銣": 2012,
      "銥": 2013,
      "銦": 2014,
      "銨": 2015,
      "銩": 2016,
      "銪": 2017,
      "銫": 2018,
      "銳": 2019,
      "銹": 2020,
      "銻": 2021,
      "鋁": 2022,
      "鋅": 2023,
      "鋇": 2024,
      "鋒": 2025,
      "鋨": 2026,
      "鋪": 2027,
      "鋯": 2028,
      "鋰": 2029,
      "鋱": 2030,
      "鋶": 2031,
      "鋸": 2032,
      "鋼": 2033,
      "錄": 2034,
      "錐": 2035,
      "錒": 2036,
      "錘": 2037,
      "錠": 2038,
      "錢": 2039,
      "錦": 2040,
      "錪": 2041,
      "錫": 2042,
      "錯": 2043,
      "錳": 2044,
      "錸": 2045,
      "錼": 2046,
      "鍋": 2047,
      "鍍": 2048,
      "鍛": 2049,
      "鍳": 2050,
      "鍵": 2051,
      "鍶": 2052,
      "鍺": 2053,
      "鎂": 2054,
      "鎓": 2055,
      "鎖": 2056,
      "鎘": 2057,
      "鎝": 2058,
      "鎢": 2059,
      "鎦": 2060,
      "鎪": 2061,
      "鎮": 2062,
      "鎳": 2063,
      "鎵": 2064,
      "鏈": 2065,
      "鏑": 2066,
      "鏡": 2067,
      "鏷": 2068,
      "鏹": 2069,
      "鏻": 2070,
      "鏽": 2071,
      "鐘": 2072,
      "鐠": 2073,
      "鐮": 2074,
      "鐳": 2075,
      "鐵": 2076,
      "鐿": 2077,
      "鑄": 2078,
      "鑥": 2079,
      "鑭": 2080,
      "钖": 2081,
      "钠": 2082,
      "钼": 2083,
      "钾": 2084,
      "锍": 2085,
      "锡": 2086,
      "镥": 2087,
      "長": 2088,
      "門": 2089,
      "閃": 2090,
      "閉": 2091,
      "開": 2092,
      "閎": 2093,
      "間": 2094,
      "閣": 2095,
      "閥": 2096,
      "闊": 2097,
      "闌": 2098,
      "關": 2099,
      "间": 2100,
      "防": 2101,
      "阻": 2102,
      "阿": 2103,
      "陀": 2104,
      "附": 2105,
      "降": 2106,
      "限": 2107,
      "除": 2108,
      "陪": 2109,
      "陰": 2110,
      "陳": 2111,
      "陶": 2112,
      "陸": 2113,
      "陽": 2114,
      "隆": 2115,
      "隔": 2116,
      "險": 2117,
      "隱": 2118,
      "雀": 2119,
      "雄": 2120,
      "雅": 2121,
      "集": 2122,
      "雌": 2123,
      "雑": 2124,
      "雕": 2125,
      "雙": 2126,
      "雜": 2127,
      "雞": 2128,
      "離": 2129,
      "雨": 2130,
      "雪": 2131,
      "雲": 2132,
      "零": 2133,
      "雷": 2134,
      "電": 2135,
      "霉": 2136,
      "霍": 2137,
      "霜": 2138,
      "霞": 2139,
      "霧": 2140,
      "霰": 2141,
      "露": 2142,
      "靈": 2143,
      "青": 2144,
      "靛": 2145,
      "靜": 2146,
      "非": 2147,
      "靠": 2148,
      "面": 2149,
      "革": 2150,
      "靶": 2151,
      "鞘": 2152,
      "鞣": 2153,
      "鞭": 2154,
      "韋": 2155,
      "響": 2156,
      "頁": 2157,
      "順": 2158,
      "須": 2159,
      "預": 2160,
      "頑": 2161,
      "頓": 2162,
      "頡": 2163,
      "頭": 2164,
      "頻": 2165,
      "顆": 2166,
      "顏": 2167,
      "類": 2168,
      "顯": 2169,
      "顱": 2170,
      "顺": 2171,
      "颜": 2172,
      "風": 2173,
      "飛": 2174,
      "食": 2175,
      "飼": 2176,
      "飽": 2177,
      "飾": 2178,
      "養": 2179,
      "餌": 2180,
      "餐": 2181,
      "餘": 2182,
      "餾": 2183,
      "香": 2184,
      "馥": 2185,
      "馨": 2186,
      "馬": 2187,
      "馳": 2188,
      "駝": 2189,
      "駢": 2190,
      "駱": 2191,
      "騰": 2192,
      "驃": 2193,
      "驅": 2194,
      "驚": 2195,
      "骨": 2196,
      "髓": 2197,
      "體": 2198,
      "高": 2199,
      "鬆": 2200,
      "鬼": 2201,
      "魏": 2202,
      "魔": 2203,
      "魚": 2204,
      "魯": 2205,
      "鮑": 2206,
      "鮫": 2207,
      "鮭": 2208,
      "鮮": 2209,
      "鯊": 2210,
      "鯡": 2211,
      "鯨": 2212,
      "鰭": 2213,
      "鰲": 2214,
      "鰶": 2215,
      "鱉": 2216,
      "鱗": 2217,
      "鱷": 2218,
      "鳥": 2219,
      "鳳": 2220,
      "鳶": 2221,
      "鴉": 2222,
      "鴻": 2223,
      "鵑": 2224,
      "鵝": 2225,
      "鵭": 2226,
      "鷹": 2227,
      "鹵": 2228,
      "鹼": 2229,
      "鹽": 2230,
      "鹿": 2231,
      "麓": 2232,
      "麗": 2233,
      "麝": 2234,
      "麟": 2235,
      "麥": 2236,
      "麩": 2237,
      "麴": 2238,
      "麻": 2239,
      "黃": 2240,
      "黄": 2241,
      "黎": 2242,
      "黏": 2243,
      "黑": 2244,
      "默": 2245,
      "點": 2246,
      "黧": 2247,
      "黨": 2248,
      "黴": 2249,
      "鼠": 2250,
      "鼻": 2251,
      "齊": 2252,
      "齒": 2253,
      "龍": 2254,
      "龜": 2255,
      "": 2256,
      "": 2257,
      "": 2258,
      "金": 2259,
      "羅": 2260,
      "螺": 2261,
      "洛": 2262,
      "蘭": 2263,
      "藍": 2264,
      "拉": 2265,
      "魯": 2266,
      "綠": 2267,
      "諾": 2268,
      "丹": 2269,
      "寧": 2270,
      "異": 2271,
      "泌": 2272,
      "索": 2273,
      "參": 2274,
      "塞": 2275,
      "殺": 2276,
      "兩": 2277,
      "聯": 2278,
      "列": 2279,
      "靈": 2280,
      "尿": 2281,
      "料": 2282,
      "龍": 2283,
      "柳": 2284,
      "硫": 2285,
      "類": 2286,
      "六": 2287,
      "崙": 2288,
      "隆": 2289,
      "利": 2290,
      "梨": 2291,
      "離": 2292,
      "鱗": 2293,
      "林": 2294,
      "茶": 2295,
      "度": 2296,
      "糖": 2297,
      "降": 2298,
      "福": 2299,
      "精": 2300,
      "﹑": 2301,
      "﹡": 2302,
      "﻿": 2303,
      "（": 2304,
      "）": 2305,
      "＋": 2306,
      "，": 2307,
      "－": 2308,
      "／": 2309,
      "：": 2310,
      "；": 2311,
      "＜": 2312,
      "＞": 2313,
      "［": 2314,
      "］": 2315,
      "ａ": 2316,
      "ｂ": 2317,
      "ｄ": 2318,
      "ｅ": 2319,
      "｛": 2320,
      "｝": 2321,
      "～": 2322,
      " -": 2323,
      " - ": 2324,
      "甲基": 2325,
      "2-": 2326,
      ", ": 2327,
      " , ": 2328,
      "( ": 2329,
      "4-": 2330,
      " )": 2331,
      "3-": 2332,
      "2 - ": 2333,
      "基-": 2334,
      "基)": 2335,
      "1-": 2336,
      "1,": 2337,
      "5-": 2338,
      "2,": 2339,
      "基苯": 2340,
      "基 ": 2341,
      "n - ": 2342,
      " ) - ": 2343,
      "-2-": 2344,
      " ( ": 2345,
      "基 - ": 2346,
      "4 - ": 2347,
      "3 - ": 2348,
      " ) ": 2349,
      "甲氧": 2350,
      "n-": 2351,
      "二甲基": 2352,
      "3,": 2353,
      "1 - ": 2354,
      "酸鹽": 2355,
      ")-": 2356,
      "丙烯": 2357,
      "6-": 2358,
      "'-": 2359,
      "苯基": 2360,
      "[ ": 2361,
      "甲酸": 2362,
      "氨酸": 2363,
      "氨基": 2364,
      "1 , ": 2365,
      "醯胺": 2366,
      "] ": 2367,
      "乙基": 2368,
      "4,": 2369,
      " - 2 - ": 2370,
      "2 , ": 2371,
      "甲基-": 2372,
      "丙烯酸": 2373,
      "5 - ": 2374,
      "吡啶": 2375,
      "合物": 2376,
      "三氟": 2377,
      "乙醯": 2378,
      "l - ": 2379,
      "1h": 2380,
      "基 ) ": 2381,
      "鹽酸鹽": 2382,
      "基)-": 2383,
      "甲酯": 2384,
      "乙酸": 2385,
      "環己": 2386,
      "磺酸": 2387,
      "l-": 2388,
      "羥基": 2389,
      "乙酯": 2390,
      "苯并": 2391,
      "叔丁": 2392,
      "3 , ": 2393,
      "-1-": 2394,
      "-4-": 2395,
      "ii": 2396,
      "n , ": 2397,
      "(2-": 2398,
      "二氯": 2399,
      "苯甲": 2400,
      "甲基 - ": 2401,
      "-3-": 2402,
      " ] ": 2403,
      "基]": 2404,
      "酸酯": 2405,
      "6 - ": 2406,
      "乙烯": 2407,
      "氨基-": 2408,
      " [ ": 2409,
      "(4-": 2410,
      "二醇": 2411,
      "基 ) - ": 2412,
      "氯化": 2413,
      "-1,": 2414,
      "羥基-": 2415,
      "甲苯": 2416,
      "二氫": 2417,
      "] - ": 2418,
      "氧化": 2419,
      "n , n - ": 2420,
      "10": 2421,
      "a - ": 2422,
      "oc": 2423,
      "甲氧基": 2424,
      "硝基苯": 2425,
      "咪唑": 2426,
      "吡咯": 2427,
      "苯二": 2428,
      "7-": 2429,
      "丙基": 2430,
      "s ) - ": 2431,
      "乙氧": 2432,
      "n,": 2433,
      "苯胺": 2434,
      "羧酸": 2435,
      "d - ": 2436,
      " - 1 - ": 2437,
      "4 , ": 2438,
      "三甲基": 2439,
      "al": 2440,
      "聚合物": 2441,
      "矽烷": 2442,
      "ph": 2443,
      "[ ( ": 2444,
      "3,5-": 2445,
      "磺醯": 2446,
      "氧代": 2447,
      "雙(": 2448,
      "r ) - ": 2449,
      "1,3-": 2450,
      "基 ] ": 2451,
      "-5-": 2452,
      "甲基 ": 2453,
      "呋喃": 2454,
      "a-": 2455,
      "2,4-": 2456,
      "h - ": 2457,
      "甲氧基苯": 2458,
      "4'-": 2459,
      "5,": 2460,
      "鈉鹽": 2461,
      "alph": 2462,
      "d-": 2463,
      "甲基)": 2464,
      "n - ( ": 2465,
      "二 ": 2466,
      " 1": 2467,
      "磷酸": 2468,
      "1h - ": 2469,
      "哌啶": 2470,
      "甲基-2-": 2471,
      "二胺": 2472,
      "甲醯": 2473,
      "硫代": 2474,
      "基-2-": 2475,
      "et": 2476,
      " a": 2477,
      "基 ] - ": 2478,
      " - 3 - ": 2479,
      "吲哚": 2480,
      "二甲": 2481,
      "亞胺": 2482,
      "四氫": 2483,
      "異丙": 2484,
      "的聚合物": 2485,
      "boc": 2486,
      "1,2-": 2487,
      "吡喃": 2488,
      "水合物": 2489,
      "丙酸": 2490,
      "氧羰": 2491,
      "羥基苯": 2492,
      "環戊": 2493,
      "二苯": 2494,
      "[(": 2495,
      "s)-": 2496,
      "2-(": 2497,
      "硼酸": 2498,
      "嘧啶": 2499,
      "甲基苯": 2500,
      "丁基": 2501,
      "r , ": 2502,
      "乙醇": 2503,
      "2,3-": 2504,
      " b": 2505,
      "',": 2506,
      "聯苯": 2507,
      ") - ": 2508,
      "7 - ": 2509,
      "2 - ( ": 2510,
      "氨基苯": 2511,
      "吡咯烷": 2512,
      "r)-": 2513,
      "8-": 2514,
      "二酸": 2515,
      "3,4-": 2516,
      "二烯": 2517,
      "9-": 2518,
      "環氧": 2519,
      "6,": 2520,
      " 基 - ": 2521,
      "羥基 - ": 2522,
      "1 ": 2523,
      "2,6-": 2524,
      "h-": 2525,
      " - 4 - ": 2526,
      "bet": 2527,
      "丙烷": 2528,
      "硝基": 2529,
      "​ ": 2530,
      "二酮": 2531,
      "2'-": 2532,
      "氟苯": 2533,
      "氯苯": 2534,
      "乙烷": 2535,
      "側氧": 2536,
      "n,n-": 2537,
      "噻吩": 2538,
      "劑 ": 2539,
      "氮雜": 2540,
      "硫酸": 2541,
      "二乙": 2542,
      "1h-": 2543,
      "二苯基": 2544,
      "2 ": 2545,
      "甲醛": 2546,
      "甲基 - 2 - ": 2547,
      "噻唑": 2548,
      "o - ": 2549,
      " ( ii": 2550,
      "4-(": 2551,
      "2,2-": 2552,
      "丁酸": 2553,
      "1 , 2 - ": 2554,
      "丙氨酸": 2555,
      "2,5-": 2556,
      "1,4-": 2557,
      "3-(": 2558,
      "溴化": 2559,
      "苯甲醯": 2560,
      "雙 ( ": 2561,
      "異氰": 2562,
      "哌嗪": 2563,
      "2-氯": 2564,
      "乙基)": 2565,
      "( s ) - ": 2566,
      "α-": 2567,
      "4,4'-": 2568,
      "基-4-": 2569,
      "丁酯": 2570,
      "5 , ": 2571,
      "氨醯": 2572,
      "4,6-": 2573,
      "( - ": 2574,
      "氧基": 2575,
      "(+": 2576,
      "酸性": 2577,
      "喹啉": 2578,
      " s": 2579,
      "(1": 2580,
      "叔丁氧羰": 2581,
      "乙醯胺": 2582,
      "二氟": 2583,
      "丙酮": 2584,
      "乙酮": 2585,
      "氨基 - ": 2586,
      "葡萄": 2587,
      "9 - ": 2588,
      "鹽酸": 2589,
      "(ii": 2590,
      "十二": 2591,
      "烷基": 2592,
      "2-甲基-2-": 2593,
      "偶氮": 2594,
      "3 - ( ": 2595,
      " 基 ) - ": 2596,
      "( r ) - ": 2597,
      "]-": 2598,
      "反式": 2599,
      "(-": 2600,
      " t": 2601,
      "1 , 3 - ": 2602,
      "葡萄糖": 2603,
      "磺醯胺": 2604,
      "1,1": 2605,
      ")-2-": 2606,
      "o-": 2607,
      " c": 2608,
      "甲醯胺": 2609,
      "氧基)": 2610,
      "乙胺": 2611,
      "丁烯": 2612,
      "基-3-": 2613,
      "乙氧基": 2614,
      "甘油": 2615,
      " d": 2616,
      "2 - 甲基 - 2 - ": 2617,
      "2-甲基-2-丙烯酸": 2618,
      "與 ": 2619,
      "6 , ": 2620,
      " 2": 2621,
      "顏料": 2622,
      "環己烷": 2623,
      " - l - ": 2624,
      "4,5-": 2625,
      "n'-": 2626,
      "(s)-": 2627,
      "r,": 2628,
      "-l-": 2629,
      "alpha - ": 2630,
      "2-丙烯酸": 2631,
      "二溴": 2632,
      "丙二醇": 2633,
      "苯甲酸": 2634,
      "吡唑": 2635,
      "2 - 甲基 - 2 - 丙烯酸": 2636,
      "酸 ": 2637,
      "2 , 3 - ": 2638,
      "2-溴": 2639,
      "鄰苯二": 2640,
      "3,3-": 2641,
      " - 5 - ": 2642,
      "氨基)": 2643,
      "4 - ( ": 2644,
      "乙二醇": 2645,
      "二(": 2646,
      "s - ": 2647,
      "二氧": 2648,
      "氨基 ": 2649,
      "(+)-": 2650,
      "氨酸 ": 2651,
      "10-": 2652,
      "內酯": 2653,
      "醯亞胺": 2654,
      "n-(": 2655,
      "脫氧": 2656,
      "(r)-": 2657,
      "n , n - 二甲基": 2658,
      "三氟甲基": 2659,
      "7,": 2660,
      "2 , 4 - ": 2661,
      "1 , 1 - ": 2662,
      "2-氨基-": 2663,
      "基-1-": 2664,
      "叔丁基": 2665,
      "三唑": 2666,
      "甲烷": 2667,
      "[2-": 2668,
      "雙環": 2669,
      "2,2'-": 2670,
      "2 , 2 - ": 2671,
      "十八": 2672,
      "亞甲基": 2673,
      "(-)-": 2674,
      "3 , 5 - ": 2675,
      " o": 2676,
      "酸鈉": 2677,
      "s-": 2678,
      "-6-": 2679,
      "乙二胺": 2680,
      "三苯基": 2681,
      "fm": 2682,
      "甲醇": 2683,
      "8 - ": 2684,
      " 基 ) ": 2685,
      "s , ": 2686,
      "苯基 - ": 2687,
      "1,1'-": 2688,
      "甲氧羰": 2689,
      "磷酸酯": 2690,
      "alpha-": 2691,
      "乙基 ": 2692,
      "fmoc": 2693,
      "9,": 2694,
      "四氟": 2695,
      "矽氧": 2696,
      "( - ) - ": 2697,
      "并 [ ": 2698,
      "2-甲基-": 2699,
      " e": 2700,
      "4-氯": 2701,
      "溴苯": 2702,
      "丙醇": 2703,
      "對甲苯": 2704,
      "酸甲酯": 2705,
      " r": 2706,
      "氧化物": 2707,
      "六氟": 2708,
      "ci": 2709,
      "1,1-": 2710,
      "苄基": 2711,
      "beta - ": 2712,
      "二乙基": 2713,
      " m": 2714,
      "2h - ": 2715,
      "異氰酸": 2716,
      " i": 2717,
      "[[": 2718,
      "β-": 2719,
      "( 1": 2720,
      "甲氧基-": 2721,
      "三氯": 2722,
      "n - [ ": 2723,
      "2,3,": 2724,
      "7 , ": 2725,
      "嗎啉": 2726,
      "三氟甲基)": 2727,
      "3 , 4 - ": 2728,
      "s,": 2729,
      "( ) - ": 2730,
      "4-溴": 2731,
      "酯 ": 2732,
      "2h": 2733,
      "六氫": 2734,
      " ( ii )": 2735,
      "20": 2736,
      "琥珀": 2737,
      "羥基 ": 2738,
      "2 - 甲基 - ": 2739,
      "酸二": 2740,
      "1-(": 2741,
      "乙二": 2742,
      " 3": 2743,
      " p": 2744,
      "乙基己": 2745,
      "矽氧烷": 2746,
      "環己基": 2747,
      "二甲氧基": 2748,
      "二氫 - ": 2749,
      "(ii)": 2750,
      "甘氨酸": 2751,
      "-1,3-": 2752,
      "環氧乙烷": 2753,
      "二甲基-": 2754,
      "2.": 2755,
      "丁烷": 2756,
      "α - ": 2757,
      " 二": 2758,
      "5'-": 2759,
      "i)": 2760,
      "苯基 ": 2761,
      "萘酚": 2762,
      "2 - 丙烯酸": 2763,
      "天冬": 2764,
      "嘌呤": 2765,
      "基-l-": 2766,
      "3'-": 2767,
      "苯酚": 2768,
      "beta-": 2769,
      "苯基]": 2770,
      "甲氧基 - ": 2771,
      "甲基-1-": 2772,
      "甲基)-": 2773,
      "-1,2-": 2774,
      " h": 2775,
      "硫化": 2776,
      "惡唑": 2777,
      "糖苷": 2778,
      "1 - ( ": 2779,
      "乙基 ) ": 2780,
      "苯基-": 2781,
      "雙[": 2782,
      "dl - ": 2783,
      "三(": 2784,
      "乙基 - ": 2785,
      "氨基甲酸": 2786,
      "霉素": 2787,
      "2-甲基": 2788,
      "磺酸鈉": 2789,
      "乙烯基": 2790,
      "3,5-二": 2791,
      "3-氯": 2792,
      "3h": 2793,
      " 4": 2794,
      "叔丁酯": 2795,
      "三甲氧基": 2796,
      "并[": 2797,
      "苯氧": 2798,
      "基]-": 2799,
      "丙胺": 2800,
      "碘化": 2801,
      "芴甲氧羰": 2802,
      "甲基 ) - ": 2803,
      " 基 ": 2804,
      "5-溴": 2805,
      " g": 2806,
      "三嗪": 2807,
      "聚物": 2808,
      "2,4-二": 2809,
      "2,4,6-": 2810,
      ":1": 2811,
      "甲硫": 2812,
      "異丙基": 2813,
      "苯 ": 2814,
      "乙基-": 2815,
      "氰基": 2816,
      "5,6-": 2817,
      "醋酸": 2818,
      "苯二胺": 2819,
      "全氟": 2820,
      "酒石": 2821,
      "dl-": 2822,
      " - d - ": 2823,
      "甲基 ) ": 2824,
      "-1": 2825,
      "無水": 2826,
      "酸鹽酸鹽": 2827,
      "四甲基": 2828,
      "甲酸甲酯": 2829,
      "分散": 2830,
      "2 - [ ": 2831,
      "n,n'-": 2832,
      "乙酸酯": 2833,
      "促進": 2834,
      "甲胺": 2835,
      "基苯胺": 2836,
      " ] - ": 2837,
      "1-甲基": 2838,
      "n - ( 2 - ": 2839,
      " 5": 2840,
      "二硫代": 2841,
      "苯基)": 2842,
      "甲基丙烯酸": 2843,
      "5-氯": 2844,
      "i )": 2845,
      "2 , 6 - ": 2846,
      "二氫-": 2847,
      "基酯": 2848,
      "苯基 ) ": 2849,
      "1 , 4 - ": 2850,
      "a , ": 2851,
      "8,": 2852,
      ":1)": 2853,
      "丙基)": 2854,
      "苯并咪唑": 2855,
      "3 , 3 - ": 2856,
      "(2": 2857,
      "a ": 2858,
      "80": 2859,
      "9 , ": 2860,
      "硫醚": 2861,
      "二 ( ": 2862,
      "3-溴": 2863,
      "醯氯": 2864,
      "oh": 2865,
      "乙炔": 2866,
      "1,1,": 2867,
      "苯并 [ ": 2868,
      "乙腈": 2869,
      "乙基 ) - ": 2870,
      "n,n-二甲基": 2871,
      " 氧": 2872,
      "iv": 2873,
      "氮唑": 2874,
      "b ] ": 2875,
      " - n - ": 2876,
      "4 , 6 - ": 2877,
      "丙酯": 2878,
      "水甘油": 2879,
      "苯基 ) - ": 2880,
      "3 ": 2881,
      "氨基]": 2882,
      "n ": 2883,
      "水合": 2884,
      "9h - ": 2885,
      "苯二甲酸": 2886,
      "半乳": 2887,
      "硝酸": 2888,
      "二氯化": 2889,
      "水楊": 2890,
      "縮水甘油": 2891,
      "胺基": 2892,
      "氨基 ) ": 2893,
      "氟化": 2894,
      "苄氧羰": 2895,
      "乙基]": 2896,
      "10 - ": 2897,
      "十六": 2898,
      "硫醇": 2899,
      "二氨基": 2900,
      " 、": 2901,
      "e ) - ": 2902,
      "乙基)-": 2903,
      "辛基": 2904,
      "苯并呋喃": 2905,
      "2h-": 2906,
      "硝基-": 2907,
      "酸乙酯": 2908,
      "cb": 2909,
      "庚烷": 2910,
      "基苯酚": 2911,
      "c1": 2912,
      "雙 [ ": 2913,
      "苯甲醛": 2914,
      "-1,4-": 2915,
      "am": 2916,
      "三甲基矽": 2917,
      "[(2-": 2918,
      "c.": 2919,
      "基)-2-": 2920,
      "十二烷": 2921,
      "n-甲基": 2922,
      "4,4-": 2923,
      "馬來": 2924,
      "甲基-4-": 2925,
      "生素": 2926,
      "甲基]": 2927,
      "活性": 2928,
      "2 - [ ( ": 2929,
      "基 - l - ": 2930,
      "二甲基 - ": 2931,
      "boc-": 2932,
      "c.i": 2933,
      "維生素": 2934,
      "(iii)": 2935,
      "谷氨酸": 2936,
      "顏料紅": 2937,
      "c.i.": 2938,
      "甲醚": 2939,
      "氮雜雙環": 2940,
      "氫化": 2941,
      "烯-1-": 2942,
      "磺酸鹽": 2943,
      "2-氟": 2944,
      "-​": 2945,
      "磺醯氯": 2946,
      "2-羥基-": 2947,
      "丙烯醯胺": 2948,
      "dm": 2949,
      "2 , 5 - ": 2950,
      " 和": 2951,
      "8 , ": 2952,
      ": 1": 2953,
      "還原": 2954,
      "氯 - ": 2955,
      "z ) - ": 2956,
      "3-甲基": 2957,
      "硬脂": 2958,
      "苯丙氨酸": 2959,
      "3-羥基-": 2960,
      "酸鉀": 2961,
      "4-氨基-": 2962,
      "基)氧": 2963,
      "de": 2964,
      "三級": 2965,
      "二苯甲": 2966,
      "吡嗪": 2967,
      "咔唑": 2968,
      "直接": 2969,
      "( 2 - ": 2970,
      "-2-酮": 2971,
      "2,2-二甲基": 2972,
      " 并 [ ": 2973,
      "胺鹽酸鹽": 2974,
      "雙酚": 2975,
      "1,3,5-": 2976,
      " ( 1 ": 2977,
      "乙醯基": 2978,
      "4 , 5 - ": 2979,
      "2',": 2980,
      "4 ": 2981,
      "1-溴": 2982,
      "2,6-二": 2983,
      "醇酯": 2984,
      "6 ": 2985,
      "丙氧": 2986,
      "4 , 4 - ": 2987,
      "3',": 2988,
      "化合物": 2989,
      "十一": 2990,
      "十四": 2991,
      "產物": 2992,
      "硫酸鹽": 2993,
      "苄酯": 2994,
      "22": 2995,
      "肉桂": 2996,
      "胺 ": 2997,
      "n-(2-": 2998,
      "脯氨酸": 2999,
      "一水": 3000,
      "[ [ ": 3001,
      "( - )": 3002,
      "a,": 3003,
      "三苯": 3004,
      "甲酸乙酯": 3005,
      "吡喃葡萄糖": 3006,
      "二鈉鹽": 3007,
      "丙烯-1-": 3008,
      "[4-": 3009,
      "樹脂": 3010,
      "乙酸乙酯": 3011,
      "n , n , n - ": 3012,
      "17": 3013,
      "鄰苯二甲酸": 3014,
      "3.": 3015,
      "丁醇": 3016,
      "甲基吡啶": 3017,
      "二苯基膦": 3018,
      "ω-": 3019,
      "丙烯 - 1 - ": 3020,
      "(1:1)": 3021,
      "99": 3022,
      "亮氨酸": 3023,
      "碘苯": 3024,
      "苯甲醯胺": 3025,
      "己烷": 3026,
      "1,5-": 3027,
      "n - 乙醯": 3028,
      "二甲基 ": 3029,
      "二氯苯": 3030,
      "12": 3031,
      "] - 2 - ": 3032,
      "氯 ": 3033,
      "甲基-3-": 3034,
      "異氰酸酯": 3035,
      "戊酸": 3036,
      "碳酸": 3037,
      "5 ": 3038,
      "n - 甲基 ": 3039,
      "苯并[": 3040,
      "boc - ": 3041,
      "二酸二": 3042,
      "三乙氧基": 3043,
      "氧雜": 3044,
      " 鹽酸鹽": 3045,
      "氧代 - ": 3046,
      "反應": 3047,
      "1,6-": 3048,
      "半胱": 3049,
      "2,5-二": 3050,
      "ap": 3051,
      "甲磺酸": 3052,
      "基苯甲酸": 3053,
      " 基 ] ": 3054,
      "基)苯": 3055,
      "2,2,": 3056,
      "''-": 3057,
      "c ": 3058,
      "胺酸": 3059,
      "脂肪": 3060,
      "4-甲基": 3061,
      "1h , ": 3062,
      "氯化物": 3063,
      "b]": 3064,
      "一水合物": 3065,
      "硫雜": 3066,
      "氨醇": 3067,
      "1 , 2 , 4 - ": 3068,
      "噁唑": 3069,
      "n - 叔丁氧羰": 3070,
      "3,4-二": 3071,
      " ( iii )": 3072,
      "琥珀醯亞胺": 3073,
      "雙(2-": 3074,
      "順式": 3075,
      "環戊二烯": 3076,
      "9h-": 3077,
      "二甲酸": 3078,
      "巰基": 3079,
      "烷酮": 3080,
      "( 4 - ": 3081,
      "聚(": 3082,
      "三氟甲基苯": 3083,
      "甲醯亞胺": 3084,
      "溶劑": 3085,
      "n - 甲基 - ": 3086,
      "基 - 2 - ": 3087,
      "6-氯": 3088,
      "-9-": 3089,
      "as": 3090,
      "聚氧": 3091,
      "00": 3092,
      "二鹽酸鹽": 3093,
      "硫氰": 3094,
      "( 2": 3095,
      "1,3-二": 3096,
      "【口": 3097,
      "雙(4-": 3098,
      "3-氨基-": 3099,
      "2 , 3 , ": 3100,
      "反應產物": 3101,
      "[2-(": 3102,
      "5-(": 3103,
      "1 - 側氧": 3104,
      "氨基甲醯": 3105,
      " f": 3106,
      "-n-": 3107,
      "檸檬": 3108,
      "磷酸鹽": 3109,
      "二唑": 3110,
      "二磺酸": 3111,
      "溴代": 3112,
      " s , ": 3113,
      "羰基": 3114,
      "賴氨酸": 3115,
      "乙醯丙酮": 3116,
      "二甲胺": 3117,
      "戊基": 3118,
      "4,5,": 3119,
      "甲酯鹽酸鹽": 3120,
      "甲基 ] - ": 3121,
      "( 1r , ": 3122,
      " l": 3123,
      "3,6-": 3124,
      "丙烯酸酯": 3125,
      "二甲苯": 3126,
      "月桂": 3127,
      "氨酸鹽酸鹽": 3128,
      "( )": 3129,
      "乙二基)": 3130,
      "異丁": 3131,
      "鉀鹽": 3132,
      "三甲氧基矽烷": 3133,
      "硫脲": 3134,
      "羥甲基": 3135,
      "苯基 ] ": 3136,
      "甲氧基-2-": 3137,
      "四氫 - ": 3138,
      "氯化銨": 3139,
      " 與 ": 3140,
      "11 - ": 3141,
      "丙基 ": 3142,
      "八氫": 3143,
      "三氟甲苯": 3144,
      "反式-4-": 3145,
      "te": 3146,
      "二異丙": 3147,
      "1-(4-": 3148,
      "n-叔丁氧羰": 3149,
      "苯并吡喃": 3150,
      "烯酸": 3151,
      "酒石酸": 3152,
      " ( 1 : 1": 3153,
      "中間": 3154,
      "二甲基胺": 3155,
      "中間體": 3156,
      "κn": 3157,
      "二茂": 3158,
      "四甲基-": 3159,
      "-2-羧酸": 3160,
      "6,6-": 3161,
      " 7": 3162,
      "dt": 3163,
      "二羥基": 3164,
      "對硝基苯": 3165,
      "聯萘": 3166,
      "側氧-2-": 3167,
      "促進劑 ": 3168,
      "(1-": 3169,
      "e)-": 3170,
      "2-羥基": 3171,
      "re": 3172,
      "甲腈": 3173,
      "絲氨酸": 3174,
      " - 2 - 酮": 3175,
      "苯二酚": 3176,
      "o , ": 3177,
      "三 ": 3178,
      "羥乙基)": 3179,
      "蛋白": 3180,
      "環戊烷": 3181,
      "beta - d - ": 3182,
      " 二 ": 3183,
      "橡膠": 3184,
      "3 - 羥基 - ": 3185,
      "(3-": 3186,
      "乙基 ] - ": 3187,
      "二羧酸": 3188,
      "封端": 3189,
      "氨醯 - l - ": 3190,
      "cbz": 3191,
      ",1": 3192,
      "二氮": 3193,
      "氫氧化": 3194,
      "環[": 3195,
      "基)-1-": 3196,
      "1h - 咪唑": 3197,
      "gam": 3198,
      "合 ": 3199,
      "氯代": 3200,
      "硼烷": 3201,
      "腺苷": 3202,
      " - 9 - ": 3203,
      "4-羥基-": 3204,
      "基)-3-": 3205,
      "吡咯烷酮": 3206,
      "3h - ": 3207,
      " - ​": 3208,
      "4-氟": 3209,
      "3,5-二甲基": 3210,
      " 6": 3211,
      "1,2,": 3212,
      "乙醯苯胺": 3213,
      "苯并噻唑": 3214,
      "5 - ( ": 3215,
      "me": 3216,
      "四唑": 3217,
      "正丁": 3218,
      "1h,": 3219,
      "丁酯、": 3220,
      "2,4,6-三": 3221,
      "氧代-": 3222,
      "1]": 3223,
      "丙基-": 3224,
      "聚乙二醇": 3225,
      " - ​ ": 3226,
      "3,3'-": 3227,
      "乙氧基)": 3228,
      "顏料黃": 3229,
      "9,10-": 3230,
      " 亞": 3231,
      "丙基]": 3232,
      "芐基": 3233,
      "辛二烯": 3234,
      "dp": 3235,
      "n-乙醯": 3236,
      "三甲基 - ": 3237,
      "熒光": 3238,
      "苄胺": 3239,
      "基苯基)": 3240,
      "甲基-5-": 3241,
      "基 ) 氧": 3242,
      "氮雜卓": 3243,
      "(3": 3244,
      "r - ": 3245,
      "γ-": 3246,
      "氨醯胺": 3247,
      "異喹啉": 3248,
      "銨鹽": 3249,
      " - 2 - 丙烯 - 1 - ": 3250,
      "n , n - 二 ": 3251,
      " n": 3252,
      "r-": 3253,
      "戊烷": 3254,
      "2-(4-": 3255,
      "二苯甲酮": 3256,
      "gamm": 3257,
      "抗氧": 3258,
      "辛烷": 3259,
      " 基 ] - ": 3260,
      "[4-(": 3261,
      "uv": 3262,
      "丁二": 3263,
      "的反應產物": 3264,
      "羥乙基": 3265,
      "酪氨酸": 3266,
      "鄰苯二甲醯亞胺": 3267,
      "1-氯": 3268,
      "3,4,": 3269,
      " a ": 3270,
      " 醯": 3271,
      "s)-2-": 3272,
      "十二烷基": 3273,
      "1 - 側氧 - 2 - 丙烯 - 1 - ": 3274,
      "正丁基": 3275,
      "1,1-二甲基": 3276,
      "二茂鐵": 3277,
      "8 ": 3278,
      "氧 - ": 3279,
      " - 6 - ": 3280,
      "2,4-二氯": 3281,
      "1 ] ": 3282,
      "過氧化": 3283,
      "1-萘": 3284,
      "-2-甲基": 3285,
      "甲氧基)": 3286,
      "乙醯氧": 3287,
      "n , n - 雙 ( ": 3288,
      "1 , 2 , 4 - 三唑": 3289,
      "cl": 3290,
      "戊環": 3291,
      "-2-基)": 3292,
      "丙二胺": 3293,
      "( 3": 3294,
      "甲氧基 ": 3295,
      "n - ( 4 - ": 3296,
      "氨醯-l-": 3297,
      "聚氧乙烯": 3298,
      "共聚物": 3299,
      "1-(2-": 3300,
      "環己烯": 3301,
      "[ ( 1": 3302,
      "乙基苯": 3303,
      "取物": 3304,
      "烯丙基": 3305,
      "縮醛": 3306,
      "2-乙基己": 3307,
      "tb": 3308,
      "丙磺酸": 3309,
      "二鈉": 3310,
      "酸銨": 3311,
      "2-​": 3312,
      "1,2,4-": 3313,
      "四氫呋喃": 3314,
      "側氧-2-丙烯-1-": 3315,
      "[3-(": 3316,
      "丁二酸": 3317,
      "乙醛": 3318,
      "二苯胺": 3319,
      "4 - [ ": 3320,
      "偶氮]": 3321,
      "-2,": 3322,
      "-d-": 3323,
      "[(4-": 3324,
      "in": 3325,
      "pa": 3326,
      "乙醚": 3327,
      "乙基-2-": 3328,
      "扁桃": 3329,
      "環 [ ": 3330,
      "金剛": 3331,
      " - 1 , ": 3332,
      "三甲基矽烷": 3333,
      "beta-d-": 3334,
      "丁酮": 3335,
      "丙炔": 3336,
      "環丙烷": 3337,
      "甲酚": 3338,
      " ( iv": 3339,
      "1h - 吡唑": 3340,
      "三苯基膦": 3341,
      "半乳糖": 3342,
      "4',": 3343,
      "異苯并呋喃": 3344,
      "羥基苯甲酸": 3345,
      "乙醇胺": 3346,
      "2,6-二甲基": 3347,
      "纈氨酸": 3348,
      "4 , 5 , ": 3349,
      "6,7-": 3350,
      "r,2": 3351,
      "聚(氧": 3352,
      "0]": 3353,
      "tm": 3354,
      "α,": 3355,
      "二硫": 3356,
      "四氮唑": 3357,
      "2-(2-": 3358,
      "6,7,": 3359,
      "tr": 3360,
      "三氮唑": 3361,
      "異硫氰": 3362,
      "硼酸鹽": 3363,
      "辛酯": 3364,
      "n , n - 二乙": 3365,
      "2 - 甲基 - 1 - 側氧 - 2 - 丙烯 - 1 - ": 3366,
      "-2": 3367,
      "之聚合物": 3368,
      "化物": 3369,
      "噻二唑": 3370,
      "2 - 氨基 - ": 3371,
      "乙酸甲酯": 3372,
      "2,6-二氯": 3373,
      " 紅": 3374,
      "d ] ": 3375,
      "二甲酯": 3376,
      "酸鈣": 3377,
      "雙 ": 3378,
      "3-氨基": 3379,
      "-1,2,4-": 3380,
      "核糖": 3381,
      "1h-咪唑": 3382,
      "1,1'-聯苯": 3383,
      " 9": 3384,
      "z)-": 3385,
      "丁醯胺": 3386,
      "四氯": 3387,
      "樟腦": 3388,
      "永固": 3389,
      "( 1s , ": 3390,
      "2.2.": 3391,
      "(4": 3392,
      "n',": 3393,
      "纖維": 3394,
      "2-萘": 3395,
      "2-氨基": 3396,
      "氨基 ) - ": 3397,
      "1 , 2 , ": 3398,
      "n , n - 二甲基 ": 3399,
      ": ": 3400,
      "棕櫚": 3401,
      "胺基]": 3402,
      "苯基-2-": 3403,
      "茴香": 3404,
      "基-d-": 3405,
      "3 - [ ": 3406,
      "異丙酯": 3407,
      "r , 5": 3408,
      "氨基苯甲酸": 3409,
      "天冬氨酸": 3410,
      "丁胺": 3411,
      "偶聯": 3412,
      "吸收": 3413,
      "氨基 ] ": 3414,
      "香豆": 3415,
      "高氯": 3416,
      "鹼性": 3417,
      "基)-4-": 3418,
      "促進劑": 3419,
      "11": 3420,
      "己基": 3421,
      "苯丙": 3422,
      " 、 ": 3423,
      "o , o - ": 3424,
      "11-": 3425,
      "2 ( ": 3426,
      "二羥基-": 3427,
      "己烯": 3428,
      "甲矽烷": 3429,
      "3-羥基": 3430,
      "基-5-": 3431,
      " 基 - l - ": 3432,
      "-3,": 3433,
      "i ) ": 3434,
      "丙基 ) ": 3435,
      "戊烯": 3436,
      "甘露": 3437,
      "r , 4": 3438,
      "2 - 甲基 - 2 - 丙烯酸 ": 3439,
      "( 1r , 2": 3440,
      " 胺": 3441,
      "三甲基-": 3442,
      "唑啉": 3443,
      "紫外": 3444,
      "酸酐": 3445,
      "2 - ​": 3446,
      "1,3,": 3447,
      "10,1": 3448,
      "氮雜環": 3449,
      "iv)": 3450,
      "均聚物": 3451,
      "提取物": 3452,
      "核苷": 3453,
      "溶液": 3454,
      "生物": 3455,
      "苯乙烯": 3456,
      "蒽醌": 3457,
      "6'-": 3458,
      "對苯二胺": 3459,
      "n - 乙基 - ": 3460,
      "-2-(": 3461,
      "1 - [ ": 3462,
      "丙烯醯": 3463,
      "苯甲醚": 3464,
      "5,5-": 3465,
      "[(1": 3466,
      "基)氧]": 3467,
      "na": 3468,
      "山梨": 3469,
      "氨基 ] - ": 3470,
      "甲酮": 3471,
      " , 1": 3472,
      "2 , 4 , 6 - ": 3473,
      "氯化 ": 3474,
      "甲醯氯": 3475,
      "[3-": 3476,
      "bs": 3477,
      "苄醇": 3478,
      "n - ( 3 - ": 3479,
      "3h ) - ": 3480,
      "肉桂酸": 3481,
      "-4": 3482,
      "ω - ": 3483,
      "單鈉鹽": 3484,
      "己酸": 3485,
      "己二酸": 3486,
      "羥甲基)": 3487,
      "4-硝基苯": 3488,
      "1 - 甲基 - ": 3489,
      "苯并三唑": 3490,
      "硼酸頻": 3491,
      " s - ": 3492,
      "(iv)": 3493,
      "gl": 3494,
      "o,": 3495,
      "十三": 3496,
      "的化合物": 3497,
      "聚體": 3498,
      "o - ( ": 3499,
      "半胱氨酸": 3500,
      " 8": 3501,
      "5h": 3502,
      "丙基 - ": 3503,
      "對氯": 3504,
      "甲基 ] ": 3505,
      "5-氨基-": 3506,
      "酸性紅": 3507,
      "母膠": 3508,
      "硝基 - ": 3509,
      "耐曬": 3510,
      "苄基 ": 3511,
      "3-氟": 3512,
      "基苯基": 3513,
      "n - boc": 3514,
      "苯甲腈": 3515,
      "氮雜雙環[": 3516,
      "香豆素": 3517,
      "母膠粒": 3518,
      " 酸": 3519,
      "-3": 3520,
      "二羥基 - ": 3521,
      "甲 ": 3522,
      "磺胺": 3523,
      "( z ) - ": 3524,
      "甲氧基-4-": 3525,
      "-3-酮": 3526,
      "二甲醇": 3527,
      "三乙氧基矽烷": 3528,
      " k": 3529,
      "-2,3-": 3530,
      "ac": 3531,
      "lt": 3532,
      "四溴": 3533,
      "氧 ": 3534,
      "n-甲基-": 3535,
      "6 , 7 , ": 3536,
      "二氧雜": 3537,
      "n , n - 二甲基 - ": 3538,
      "十八烷": 3539,
      "9,9-": 3540,
      "氮雜雙環 [ ": 3541,
      "2,2,6,6-": 3542,
      " 10": 3543,
      "-7-": 3544,
      "70": 3545,
      "p - ": 3546,
      "甘醇": 3547,
      "甲苯基": 3548,
      "醯基": 3549,
      "門冬": 3550,
      "乙酯、": 3551,
      "n , n , n , n - ": 3552,
      "1h-吡唑": 3553,
      "六氟磷酸鹽": 3554,
      "縮水甘油醚": 3555,
      "is": 3556,
      "二水合物": 3557,
      "苯酯": 3558,
      "-2-甲酸": 3559,
      "1,3-丙二醇": 3560,
      "二甲氨基": 3561,
      "羥基苯基)": 3562,
      "2-氯-5-": 3563,
      "15": 3564,
      "α , ": 3565,
      "丁基 ": 3566,
      "三 ( ": 3567,
      "預分散": 3568,
      "2-氯-4-": 3569,
      "(1r,2": 3570,
      "三氟甲基 ) ": 3571,
      "b ] 呋喃": 3572,
      "半乳糖苷": 3573,
      "1.": 3574,
      "pp": 3575,
      "丁二醇": 3576,
      "色氨酸": 3577,
      "菌素": 3578,
      "基 - 3 - ": 3579,
      "三氟甲磺酸": 3580,
      "n,n,": 3581,
      "1h - 吲哚": 3582,
      "雙環[": 3583,
      " 和 ": 3584,
      "二氮烯": 3585,
      "二-": 3586,
      "四甲基 - ": 3587,
      "氫溴": 3588,
      "碘代": 3589,
      "雜質": 3590,
      "(r": 3591,
      "d]": 3592,
      "三烯": 3593,
      "丙基 ] - ": 3594,
      "二乙酯": 3595,
      "氨基)-": 3596,
      "2,2,2-": 3597,
      "甲氧基苯基)": 3598,
      "基-3-甲基": 3599,
      "一水物": 3600,
      " ( 1 : 1 )": 3601,
      " z": 3602,
      "e ] ": 3603,
      "苯基 ] - ": 3604,
      "甲基]-": 3605,
      "6-溴": 3606,
      "檸檬酸": 3607,
      " 黃": 3608,
      "天門冬": 3609,
      "矽基)": 3610,
      "三氟甲烷": 3611,
      "硝基苯胺": 3612,
      "甲基苯酚": 3613,
      "溴化銨": 3614,
      "(r)-(+)-": 3615,
      "吡喃葡萄糖苷": 3616,
      "金剛烷": 3617,
      " ( iv )": 3618,
      " 的聚合物": 3619,
      "五氟": 3620,
      "噻嗪": 3621,
      "四乙酸": 3622,
      "離子": 3623,
      "頭孢": 3624,
      "( e ) - ": 3625,
      "5-氟": 3626,
      "-4-酮": 3627,
      "12 - ": 3628,
      "mb": 3629,
      "含量": 3630,
      "引發": 3631,
      "聚 ( ": 3632,
      "醋酸酯": 3633,
      "防老": 3634,
      "2 - 羥基": 3635,
      "2 - 甲基 ": 3636,
      "1 - 萘": 3637,
      "甲酯的聚合物": 3638,
      "環己胺": 3639,
      "2,4-二甲基": 3640,
      "n,n-二": 3641,
      "丁酸乙酯": 3642,
      "fmoc - ": 3643,
      "天冬醯胺": 3644,
      "甲基-1-側氧-2-丙烯-1-": 3645,
      "丙二": 3646,
      "聯苯胺": 3647,
      "3-(4-": 3648,
      "二苯基-": 3649,
      "1 , 2 - 乙二": 3650,
      "(1s,": 3651,
      "6 , 7 - ": 3652,
      "221 ] ": 3653,
      " (": 3654,
      "14": 3655,
      "db": 3656,
      "丁氧": 3657,
      "戊四": 3658,
      "氫-": 3659,
      "線吸收": 3660,
      "4-羥基": 3661,
      "n - 叔丁氧羰基 - ": 3662,
      "紫外線吸收": 3663,
      " 基苯": 3664,
      "(三氟甲基)": 3665,
      "3h-": 3666,
      "50": 3667,
      "五氟苯": 3668,
      "環辛二烯": 3669,
      "精氨酸": 3670,
      "3-(2-": 3671,
      "3 - 甲基 - ": 3672,
      "哌啶酮": 3673,
      "甲基苯基)": 3674,
      "(s)-(-)-": 3675,
      "3,3-二甲基": 3676,
      " 酸 ": 3677,
      "三醇": 3678,
      "乙基 ] ": 3679,
      "二 - ": 3680,
      "亞氨基": 3681,
      "碳酸酯": 3682,
      "聚糖": 3683,
      "草酸": 3684,
      "4 - 羥基 - ": 3685,
      "二氧戊環": 3686,
      "水楊酸": 3687,
      "三級丁": 3688,
      "1,3,5-三嗪": 3689,
      "4.": 3690,
      "40": 3691,
      "丙基 ) - ": 3692,
      "與2-甲基-2-丙烯酸": 3693,
      "苯氧基": 3694,
      "甲酸酯": 3695,
      "三氟甲氧基苯": 3696,
      "叔丁基苯": 3697,
      "硝基苯基)": 3698,
      "4,4'-二": 3699,
      "-1,2-乙二基)": 3700,
      " u": 3701,
      " 單": 3702,
      "三甲": 3703,
      "亞甲": 3704,
      "溴 ": 3705,
      "硝基-4-": 3706,
      "硫酚": 3707,
      "膽鹼": 3708,
      "苄氧": 3709,
      "3 - [ ( ": 3710,
      "1 - 甲基": 3711,
      " - 2 - 氨基 - ": 3712,
      "苯甲醇": 3713,
      "三苯基溴化": 3714,
      "十六烷": 3715,
      "三乙基": 3716,
      "三氯化": 3717,
      "二氧化物": 3718,
      "亞硝": 3719,
      "藥膠": 3720,
      "n-boc-": 3721,
      "3,4,5-": 3722,
      "乙基]-": 3723,
      "3 , 6 - ": 3724,
      "-1-醇": 3725,
      "甲苯胺": 3726,
      "硫代磷酸酯": 3727,
      "苯甲醯氯": 3728,
      "5 , 6 - ": 3729,
      "丁烯二酸": 3730,
      "扁桃酸": 3731,
      ")]": 3732,
      "30": 3733,
      "a ] ": 3734,
      "da": 3735,
      "三胺": 3736,
      "乙磺酸": 3737,
      "澱粉": 3738,
      "葡糖": 3739,
      "2,7-": 3740,
      "1h - 1 , 2 , 4 - 三唑": 3741,
      "吲哚-3-": 3742,
      "2 - ( 4 - ": 3743,
      "酸性棕": 3744,
      "c - ": 3745,
      "亞鐵": 3746,
      "和2-甲基-2-丙烯酸": 3747,
      "四(": 3748,
      "磷醯": 3749,
      "酯、": 3750,
      "5-甲基": 3751,
      "n-(4-": 3752,
      "環己酮": 3753,
      "基酯的聚合物": 3754,
      "馬來醯亞胺": 3755,
      "基 ) 氧 ] ": 3756,
      "聚(氧-1,2-乙二基)": 3757,
      "-1,2,4-三唑": 3758,
      "n',n'-": 3759,
      "31": 3760,
      "丙酸酯": 3761,
      "化劑": 3762,
      "羥乙基 ) ": 3763,
      "膦酸": 3764,
      "苯乙酮": 3765,
      "4-氨基": 3766,
      "4 - [ ( ": 3767,
      "環己醇": 3768,
      "苯并二": 3769,
      "乙氧羰": 3770,
      "2,2-二甲基-1,3-": 3771,
      " n - ": 3772,
      "4h - ": 3773,
      "dc": 3774,
      "p-": 3775,
      "丙醯胺": 3776,
      "丙二酸二": 3777,
      "亞 ": 3778,
      "糖醇": 3779,
      "黃酮": 3780,
      "n-boc": 3781,
      "3 , 2 - ": 3782,
      "氨基-2-": 3783,
      "氧代 ": 3784,
      "(r)-(-)-": 3785,
      "十八碳": 3786,
      "ci ": 3787,
      "(i)": 3788,
      "12-": 3789,
      "edt": 3790,
      "β - d - ": 3791,
      "-2-烯": 3792,
      " - 2 - ( ": 3793,
      "1,3-雙(": 3794,
      "2'-脫氧": 3795,
      "2,5-二甲基": 3796,
      "(+)-2-": 3797,
      "r,5": 3798,
      "3h)-": 3799,
      " ]": 3800,
      "四苯基": 3801,
      "溴苄": 3802,
      "苯乙酸": 3803,
      "( 2 ": 3804,
      "2 - 乙基己": 3805,
      "n - 苄氧羰": 3806,
      "矽烷偶聯": 3807,
      "1h - 苯并咪唑": 3808,
      "二苯醚": 3809,
      "[(1-": 3810,
      "二乙胺": 3811,
      " ( ii ) ": 3812,
      "琥珀醯亞胺酯": 3813,
      "丙醯": 3814,
      "對羥基苯": 3815,
      "戊二酸": 3816,
      "4-(4-": 3817,
      "1 , 5 - ": 3818,
      "羥基-3-": 3819,
      "5,5'-": 3820,
      "甲醯基": 3821,
      "(-)-2-": 3822,
      "fmoc-": 3823,
      "酸二甲酯": 3824,
      "2,4,6-三甲基": 3825,
      "2.2.1]": 3826,
      " (1:1)": 3827,
      "yl": 3828,
      "六水": 3829,
      "環丙": 3830,
      "癸烷": 3831,
      "苯乙胺": 3832,
      "甲基酯": 3833,
      "1,2,3-": 3834,
      "1,8-": 3835,
      "1 , 3 , 5 - ": 3836,
      "n , n - 二 ( ": 3837,
      "硫酸鈉": 3838,
      "5-氯-2-": 3839,
      "氫溴酸鹽": 3840,
      "os": 3841,
      "己二醇": 3842,
      "異亞": 3843,
      "穩定": 3844,
      "羥胺": 3845,
      "聯吡啶": 3846,
      "苯三": 3847,
      "蛋氨酸": 3848,
      "谷氨酸 ": 3849,
      "辛酸": 3850,
      " ) , ": 3851,
      "1 , 6 - ": 3852,
      "氨基苯酚": 3853,
      " 氧基 ) ": 3854,
      "纖維素": 3855,
      " 與": 3856,
      "β - ": 3857,
      "二苯甲醯": 3858,
      "二苯并 [ ": 3859,
      "戊酯": 3860,
      "異噻唑": 3861,
      "重氮": 3862,
      " - 2 - 基 ) ": 3863,
      "磺酸酯": 3864,
      "乙酯的聚合物": 3865,
      "乙氧基苯": 3866,
      "三甲基 ": 3867,
      "丙酸乙酯": 3868,
      "7 , 7 - ": 3869,
      "5-溴-2-": 3870,
      "戊四醇": 3871,
      "-4'-": 3872,
      "4h": 3873,
      "啉酮": 3874,
      "喹唑啉": 3875,
      "四丁基": 3876,
      "腺嘌呤": 3877,
      ", 2-": 3878,
      "2 - 羥基 - ": 3879,
      "n - boc - ": 3880,
      "3,7-": 3881,
      "6-(": 3882,
      "乙醯 ": 3883,
      "-4-羧酸": 3884,
      "1 , 1 - 二甲基": 3885,
      "2 - 丙烯酸 ": 3886,
      "n,n'-二": 3887,
      "硼酸頻哪": 3888,
      "di": 3889,
      "ly": 3890,
      "丁基-": 3891,
      "二環[": 3892,
      "尿苷": 3893,
      "萘酮": 3894,
      " ( 2h": 3895,
      "n-乙基-": 3896,
      "3,3',": 3897,
      "4,7-": 3898,
      "磺酸鈉鹽": 3899,
      "6 - ( ": 3900,
      "異丙基苯": 3901,
      "二苯基 ": 3902,
      "四氟硼酸": 3903,
      "氨基甲酸酯": 3904,
      "-(": 3905,
      "1'-": 3906,
      "ar": 3907,
      "b , ": 3908,
      "丁基 - ": 3909,
      "丙基)-": 3910,
      "二聚體": 3911,
      "亞基": 3912,
      "氯甲基)": 3913,
      "煙酸": 3914,
      "組氨酸": 3915,
      "苯磺醯胺": 3916,
      "苯基-1-": 3917,
      "薄荷": 3918,
      "2-乙醯": 3919,
      "4-甲氧基苯": 3920,
      "二甲基氨基)": 3921,
      "乙基酯": 3922,
      " - 2 - 烯": 3923,
      "-4-(": 3924,
      "硝基苯甲酸": 3925,
      "丙基三甲氧基矽烷": 3926,
      "1h - 茚": 3927,
      "甲基苯甲酸": 3928,
      "溴化鎂": 3929,
      "alpha - d - ": 3930,
      "1,2,3,4-": 3931,
      "含量≤": 3932,
      "丁內酯": 3933,
      "三鈉鹽": 3934,
      "二氧化": 3935,
      "二側氧": 3936,
      "二硫化": 3937,
      "前列": 3938,
      "庚烯": 3939,
      "矽酸": 3940,
      "過氧": 3941,
      "鄰氯": 3942,
      "4-甲氧基": 3943,
      "n - [ ( ": 3944,
      "4 - 甲基 - ": 3945,
      "4 - 氨基 - ": 3946,
      "甲基-​": 3947,
      "乙酸 ": 3948,
      "磺醯基]": 3949,
      "alpha , ": 3950,
      "四氫-": 3951,
      "劑 t": 3952,
      "十二碳": 3953,
      "α - ( ": 3954,
      "二硫代氨基甲酸": 3955,
      "9 , 9 - ": 3956,
      "脂肪酸": 3957,
      " 的": 3958,
      " 鈉鹽": 3959,
      "18": 3960,
      "met": 3961,
      "冰片": 3962,
      "卟吩": 3963,
      "和 ": 3964,
      "四 ": 3965,
      "己內酯": 3966,
      "支鏈": 3967,
      "氯 - 3 - ": 3968,
      "磷醯胺": 3969,
      "n - 乙基 ": 3970,
      "n-苄氧羰": 3971,
      " - 2 - 羧酸": 3972,
      "吡啶-3-": 3973,
      " - 1 - 氮雜雙環 [ ": 3974,
      "3,5-二氯": 3975,
      "二甲氨基)": 3976,
      "環戊烯": 3977,
      "2,3-二": 3978,
      " ( iii ) ": 3979,
      "( r ) - ( ) - ": 3980,
      "4-氯-3-": 3981,
      "十一烷": 3982,
      "9h": 3983,
      "l-2-": 3984,
      "sp": 3985,
      "乳酸": 3986,
      "左旋": 3987,
      "胞苷": 3988,
      " - 2 , ": 3989,
      "甲基苯胺": 3990,
      "1,3,3-": 3991,
      "基)-l-": 3992,
      "硝基苯酚": 3993,
      "2 - ( 2 - ": 3994,
      "( s ) - ( - ) - ": 3995,
      "o-(": 3996,
      "對甲苯磺醯": 3997,
      "對甲苯磺酸鹽": 3998,
      "ω-羥基": 3999,
      " x": 4000,
      "(1h": 4001,
      "媒介": 4002,
      "羧基": 4003,
      "鳥苷": 4004,
      "甲基哌嗪": 4005,
      "2 - 萘": 4006,
      " - 2 - 甲酸": 4007,
      "硫代 ": 4008,
      " - 4 - 酮": 4009,
      "4,6-二": 4010,
      "(s)-(+)-": 4011,
      "r,4": 4012,
      "o,o-": 4013,
      "1 , 2 - 乙二基 ) ": 4014,
      " 醇": 4015,
      "(±": 4016,
      "d ": 4017,
      "丁炔": 4018,
      "二異": 4019,
      "二磷酸": 4020,
      "亞甲基 - ": 4021,
      "六氯": 4022,
      " ( i )": 4023,
      "吡啶基)": 4024,
      "三氟化": 4025,
      "酸性黃": 4026,
      " in": 4027,
      "20 ] ": 4028,
      "碘化物": 4029,
      " 2 ": 4030,
      "a]": 4031,
      "e , ": 4032,
      "si": 4033,
      "二丁基": 4034,
      "二乙氧基": 4035,
      "亞甲基)": 4036,
      "對溴": 4037,
      "戊醇": 4038,
      "疊氮": 4039,
      "試劑": 4040,
      "4-硝基": 4041,
      "n - 苯基 ": 4042,
      "n - 芴甲氧羰": 4043,
      " ( 2 - ": 4044,
      "乙烯基苯": 4045,
      "-1,3,5-": 4046,
      "磺醯基)": 4047,
      "氯苯基)": 4048,
      "烷基酯": 4049,
      "fmoc - l - ": 4050,
      "β-d-": 4051,
      "n - [ 3 - ( ": 4052,
      "矽氧烷與": 4053,
      "2 - [ ( 2 - 甲基 - 1 - 側氧 - 2 - 丙烯 - 1 - ": 4054,
      "an": 4055,
      "c ] ": 4056,
      "er": 4057,
      "ic": 4058,
      "二十": 4059,
      "六水合物": 4060,
      "甲磺醯胺": 4061,
      "硝基-2-": 4062,
      "硫酮": 4063,
      "羧酸酯": 4064,
      "腺素": 4065,
      "輔酶": 4066,
      "n-乙基": 4067,
      "-1-基)": 4068,
      "1,2-丙二醇": 4069,
      "1 , 3 - 二氫 - ": 4070,
      "6 , 6 - ": 4071,
      "脫氧 - ": 4072,
      "2-氨基-5-": 4073,
      "三級丁基": 4074,
      "聚 ( 氧 - ": 4075,
      " 基": 4076,
      "ep": 4077,
      "二苯并[": 4078,
      "吖啶": 4079,
      "拉唑": 4080,
      "氰基苯": 4081,
      "烯丙": 4082,
      "牛脂": 4083,
      "苯醌": 4084,
      " ) -": 4085,
      "氨基哌啶": 4086,
      "苯甲銨": 4087,
      "-3-羧酸": 4088,
      "1,3-二甲基": 4089,
      "5,7-": 4090,
      " - 3 - 酮": 4091,
      "2,3-二氫": 4092,
      "1,4-二": 4093,
      "fmoc-l-": 4094,
      "烯-1-醇": 4095,
      "gamma - ": 4096,
      "[[(": 4097,
      "hcl": 4098,
      "​ - ​ ": 4099,
      "三酮": 4100,
      "丙腈": 4101,
      "亞磷酸": 4102,
      "氯苯基 ) - ": 4103,
      "硫酸酯": 4104,
      "萘二磺酸": 4105,
      "葡聚糖": 4106,
      "3-甲基-2-": 4107,
      "環己基 ": 4108,
      "叔丁基 ": 4109,
      "-4-氯": 4110,
      "二氯 ": 4111,
      "環戊基": 4112,
      "2-丙烯酸酯": 4113,
      "7,7-": 4114,
      "1 , 1 - 聯苯": 4115,
      "四氟硼酸鹽": 4116,
      "惡唑烷酮": 4117,
      "n,n,n',n'-": 4118,
      "2,2,2-三氟": 4119,
      "(2h": 4120,
      "60": 4121,
      "mp": 4122,
      "丁醚": 4123,
      "丁酸酯": 4124,
      "十三氟": 4125,
      "噠嗪": 4126,
      "異丁酸": 4127,
      "聚[": 4128,
      "3-甲基-": 4129,
      "[ 1 , ": 4130,
      "1 , 2 , 3 - ": 4131,
      "1 , 3 , 3 - ": 4132,
      "磺酸 ": 4133,
      "氧化 ": 4134,
      "丙基醚": 4135,
      " - 1 - ( ": 4136,
      "丙酸甲酯": 4137,
      "α-氫-": 4138,
      "2,3,5,6-": 4139,
      "2 - [ ( 2 - 甲基 - 1 - 側氧 - 2 - 丙烯 - 1 - 基 ) 氧 ] ": 4140,
      " 烷": 4141,
      "(e)-": 4142,
      "(z)-": 4143,
      "-8-": 4144,
      "、 ": 4145,
      "乙基苯胺": 4146,
      "二水": 4147,
      "亞乙基)": 4148,
      "奎寧": 4149,
      "溴 - ": 4150,
      "環丙基": 4151,
      "聚矽氧烷": 4152,
      "酞菁": 4153,
      "n - 甲基": 4154,
      "n - 苯基 - ": 4155,
      "1 , 7 , 7 - ": 4156,
      "2 , 2 , ": 4157,
      "1h ) - ": 4158,
      "三甲基環己烷": 4159,
      " 基 - 4 - ": 4160,
      "二乙二醇": 4161,
      "甘油酯": 4162,
      "ci顏料紅": 4163,
      "甲氧基-5-": 4164,
      "2,3,4,": 4165,
      "十四烷": 4166,
      "(1s,2": 4167,
      "221 ] 庚": 4168,
      "98": 4169,
      "丁二烯": 4170,
      "右旋": 4171,
      "吲唑": 4172,
      "嗎啡": 4173,
      "與2-丙烯酸": 4174,
      "菊酯": 4175,
      "藍 1": 4176,
      "蘇氨酸": 4177,
      "基苯并": 4178,
      "環己二胺": 4179,
      "羥基吡咯烷": 4180,
      " - 1 - 基 ) ": 4181,
      "琥珀酸": 4182,
      "環己基膦": 4183,
      "9 , 10 - ": 4184,
      "( - ) - 2 - ": 4185,
      "抗氧劑 ": 4186,
      "硼酸頻哪醇酯": 4187,
      " 酯": 4188,
      "''": 4189,
      "丙基 ] ": 4190,
      "二氮雜": 4191,
      "五甲基": 4192,
      "( 1 ": 4193,
      "2,4,5-": 4194,
      "4 - 硝基苯": 4195,
      " ) ] ": 4196,
      "甲基-l-": 4197,
      "環己基)": 4198,
      "呋喃酮": 4199,
      "1h - 吡咯": 4200,
      " 基 ) - l - ": 4201,
      "2h - 吡喃": 4202,
      "4-溴-2-": 4203,
      "9h - 芴": 4204,
      "9h - 茀": 4205,
      "5h - ": 4206,
      "丁基 ) - ": 4207,
      "三丁基": 4208,
      "二乙酸": 4209,
      "亞乙基": 4210,
      "水解": 4211,
      "羰基]": 4212,
      "醯肼": 4213,
      " - 3": 4214,
      "1,1,1-": 4215,
      "乙醯基-": 4216,
      "叔丁基-": 4217,
      "3 , 4 , ": 4218,
      "二氫 - 3 - ": 4219,
      "d - 葡萄糖": 4220,
      "2,5-二氯": 4221,
      " - 5 - 基 ) ": 4222,
      "[2-(2-": 4223,
      "雙環 [ ": 4224,
      "s,5": 4225,
      "甲基丙烯酸酯": 4226,
      "[(2-甲基-1-側氧-2-丙烯-1-": 4227,
      "b]呋喃": 4228,
      "二甲基胺基 ) ": 4229,
      "封端的": 4230,
      "熒光素": 4231,
      "gamma-": 4232,
      " 烯": 4233,
      "(6": 4234,
      "b,": 4235,
      "th": 4236,
      "​-​": 4237,
      "七氟": 4238,
      "二(2-": 4239,
      "四 ( ": 4240,
      "與2 - 甲基 - 2 - 丙烯酸": 4241,
      "色酚": 4242,
      "衍生物": 4243,
      "2-甲氧基": 4244,
      "4-甲基-": 4245,
      "n-苯基": 4246,
      "n-芴甲氧羰": 4247,
      " - 2 - 基 ) - ": 4248,
      "乙醯基 - ": 4249,
      "二氫 ": 4250,
      " - 1 - 苯并吡喃": 4251,
      "5,6,": 4252,
      "硝基吡啶": 4253,
      "1h-苯并咪唑": 4254,
      "( s ) - ( ) - ": 4255,
      "偶氮 ] - ": 4256,
      "1 , 1 - 聯萘": 4257,
      "3.3.": 4258,
      "十三烷": 4259,
      "矽烷偶聯劑": 4260,
      "二叔丁基": 4261,
      "井】": 4262,
      "卡因": 4263,
      "對氯苯": 4264,
      "甘氨醯": 4265,
      "甲磺酸鹽": 4266,
      "苯並": 4267,
      "葡糖苷": 4268,
      "谷氨醯胺": 4269,
      " - 80": 4270,
      "1,​": 4271,
      "丙基甲基": 4272,
      "側氧 - ": 4273,
      "( r ) - ( - ) - ": 4274,
      "反式-": 4275,
      "2-溴-5-": 4276,
      "基-3-甲基咪唑": 4277,
      " 甲基 ) ": 4278,
      "(甲": 4279,
      "16": 4280,
      "75": 4281,
      "e]": 4282,
      "乙酸鹽": 4283,
      "和2-丙烯酸": 4284,
      "咢】": 4285,
      "對氨基苯": 4286,
      "絡合物": 4287,
      "聚合 ": 4288,
      "基苯甲醛": 4289,
      "基苯乙酮": 4290,
      "-2-基)-": 4291,
      " ( v": 4292,
      "苯基]-": 4293,
      "環己二烯": 4294,
      "-1-(": 4295,
      "甲基 - l - ": 4296,
      "n , n - 二異丙": 4297,
      "1h - 苯并 [ ": 4298,
      "r , 3": 4299,
      " 基 - 3 - ": 4300,
      "1,1'-聯": 4301,
      "alpha-d-": 4302,
      "酸二乙酯": 4303,
      " v": 4304,
      "(3h)-": 4305,
      "e,": 4306,
      "ta": 4307,
      "二異氰酸": 4308,
      "替尼": 4309,
      "氟 - ": 4310,
      "氧基 ) ": 4311,
      "氨甲基": 4312,
      "氯丙烷": 4313,
      "氰基-": 4314,
      "脯氨醇": 4315,
      "萘胺": 4316,
      "-2-基": 4317,
      "甲氧基 ) ": 4318,
      "二甲基矽烷": 4319,
      "乙氧基]": 4320,
      "雙(二苯基膦": 4321,
      "氟苯基)": 4322,
      "劑 uv": 4323,
      "2-氯-": 4324,
      "2h - 環戊": 4325,
      "2.0]": 4326,
      "二氯化鈀": 4327,
      "抗氧劑": 4328,
      "e ] 吲哚": 4329,
      "-d": 4330,
      "do": 4331,
      "丁氧基": 4332,
      "二丙酸": 4333,
      "內鹽": 4334,
      "壬烷": 4335,
      "氧基]": 4336,
      "氯 - 2 - ": 4337,
      "氯矽烷": 4338,
      "氰化": 4339,
      "癸基": 4340,
      "羥 ": 4341,
      "肼鹽酸鹽": 4342,
      "苄基 - ": 4343,
      "銨 ": 4344,
      "3-吡啶": 4345,
      "-1,1-": 4346,
      "羥基-2-": 4347,
      "咪唑啉": 4348,
      "二苯基 - ": 4349,
      "環氧丙烷": 4350,
      "二溴-": 4351,
      "酯 與 ": 4352,
      "n , n - 二乙基 ": 4353,
      "山梨醇": 4354,
      "4]": 4355,
      "bz": 4356,
      "三聚": 4357,
      "不飽": 4358,
      "喹喔": 4359,
      "尿嘧啶": 4360,
      "己二胺": 4361,
      "癸酸": 4362,
      "羥甲基)-": 4363,
      "芐酯": 4364,
      "苯磺酸": 4365,
      "辛烯": 4366,
      "間苯二酚": 4367,
      " - d": 4368,
      "基苯硼酸": 4369,
      "氨基-1-": 4370,
      "als": 4371,
      "甲氧基苯基 ) - ": 4372,
      "甲氧基苯甲醛": 4373,
      "boc - l - ": 4374,
      "boc-l-": 4375,
      "n,n-二乙基": 4376,
      "硫酸氫": 4377,
      "( r ) - ( )": 4378,
      "乙二胺四乙酸": 4379,
      "硬脂酸酯": 4380,
      "矽氧烷與聚矽氧烷": 4381,
      " ii": 4382,
      "(s)-2-": 4383,
      "b - ": 4384,
      "壞血": 4385,
      "巰基-": 4386,
      "抗壞血": 4387,
      "氘代": 4388,
      "甲磺醯": 4389,
      "膦醯": 4390,
      "鈣鹽": 4391,
      "雄甾": 4392,
      "2,3,4-": 4393,
      "-2-基]": 4394,
      "環己烯-1-": 4395,
      "二苯基乙二胺": 4396,
      "酸性黑": 4397,
      "2-甲基-2-丙烯酸甲酯": 4398,
      "2-甲基-​": 4399,
      "1,3,5-三": 4400,
      " ( 1 : 1 ) ": 4401,
      "二甲基胺基)": 4402,
      "聚氧乙烯醚": 4403,
      "異硫氰酸": 4404,
      " 鎓": 4405,
      " 鹽": 4406,
      "4 ] ": 4407,
      "9 ": 4408,
      "]的聚合物": 4409,
      "n3": 4410,
      "三氧化": 4411,
      "三羥甲基": 4412,
      "對硝基": 4413,
      "椰油": 4414,
      "混合物": 4415,
      "環庚": 4416,
      "環丁烷": 4417,
      "磷雜": 4418,
      "磺基": 4419,
      "酞醯亞胺": 4420,
      "降冰片": 4421,
      "4-氯苯": 4422,
      "1-苯基": 4423,
      "1,3,4-": 4424,
      "二甲基-2-": 4425,
      "3,2-": 4426,
      "-3-醇": 4427,
      "r ) - 1 , 7 , 7 - ": 4428,
      "-5-基)": 4429,
      "alpha,": 4430,
      " 12": 4431,
      "氟苯甲酸": 4432,
      "二乙基-": 4433,
      "r,3": 4434,
      "7,8,": 4435,
      "3 , 4 - 二氫 - ": 4436,
      "1,1,3,3-": 4437,
      "基)氧基]": 4438,
      "5h ) - ": 4439,
      "丙二酸二乙酯": 4440,
      " 醯胺": 4441,
      "-5": 4442,
      "-2,5-": 4443,
      "13": 4444,
      "7 ] ": 4445,
      "90": 4446,
      "二酐": 4447,
      "戊酮": 4448,
      "正辛": 4449,
      "煙醯胺": 4450,
      "苯硼酸": 4451,
      "茚滿": 4452,
      "酯 , ": 4453,
      "青霉素": 4454,
      "2-碘": 4455,
      "4-(2-": 4456,
      "2 - 氯 - ": 4457,
      "1,10-": 4458,
      "2,4,": 4459,
      " ) - oh": 4460,
      "氨基]-": 4461,
      "叔丁基-4-": 4462,
      "乙烯酯": 4463,
      "甲氧基苯胺": 4464,
      "異丙醇": 4465,
      "6,8-": 4466,
      "氯苯基)-": 4467,
      "4,5-二氫": 4468,
      "苯甲酸甲酯": 4469,
      "4-氯-2-": 4470,
      "硬脂酸": 4471,
      "高氯酸": 4472,
      "2.2.1]庚": 4473,
      "喹喔啉": 4474,
      " 磺醯": 4475,
      "on": 4476,
      "ome": 4477,
      "二異丙基": 4478,
      "亮氨醯": 4479,
      "去氧": 4480,
      "己酯": 4481,
      "氧基)-": 4482,
      "異噁唑": 4483,
      "稀釋": 4484,
      "酸)": 4485,
      "1-甲基-": 4486,
      "1 - ​ ": 4487,
      "氨基吡啶": 4488,
      " - 2 - 基 ": 4489,
      "三氟甲氧基)": 4490,
      "磺醯基 ] ": 4491,
      "alpha": 4492,
      " bas": 4493,
      "s , 5": 4494,
      "3-氯-4-": 4495,
      "蛋白酶": 4496,
      "( 1s , 2": 4497,
      "[(2-甲基-1-側氧-2-丙烯-1-基)氧]": 4498,
      "als bas": 4499,
      "稀釋劑": 4500,
      "bp": 4501,
      "·hcl": 4502,
      "丁醯": 4503,
      "丁基)": 4504,
      "丙氧基)": 4505,
      "去甲": 4506,
      "型稀釋劑": 4507,
      "矽基": 4508,
      "硫 ": 4509,
      "黃素": 4510,
      "3-苯基": 4511,
      "甲酸 ": 4512,
      "乙烯基-": 4513,
      "1,2-乙二醇": 4514,
      "溴化物": 4515,
      "2-氯-6-": 4516,
      "氨酸 甲酯鹽酸鹽": 4517,
      "三氯矽烷": 4518,
      "als basis": 4519,
      "型稀釋劑≥": 4520,
      " 并": 4521,
      "-5'-": 4522,
      "17-": 4523,
      "11,1": 4524,
      "4s ) - ": 4525,
      "b-": 4526,
      "br": 4527,
      "二(4-": 4528,
      "化 ": 4529,
      "氯甲基": 4530,
      "油酸": 4531,
      "異亮氨酸": 4532,
      "胺基-": 4533,
      "芐胺": 4534,
      "辛 - 2 - 烯": 4535,
      "透明": 4536,
      "雙-": 4537,
      " - 7 - ": 4538,
      ", 與": 4539,
      "1-丁": 4540,
      "5-硝基": 4541,
      "n-[2-": 4542,
      "4,1-": 4543,
      "甲基-1,2-": 4544,
      "-1-氮雜雙環[": 4545,
      " 1 ": 4546,
      " - 3 - ( ": 4547,
      "吡喃半乳糖苷": 4548,
      "n,n-二甲基-": 4549,
      "1h-茚": 4550,
      "3 , 5 - 二 ": 4551,
      "c.i.顏料紅": 4552,
      "n-叔丁氧羰基-": 4553,
      "κn3": 4554,
      "3,4,4,5,": 4555,
      "2]": 4556,
      "丙二酸": 4557,
      "二甲氧基 - ": 4558,
      "氯苄": 4559,
      "沙星": 4560,
      "異惡唑": 4561,
      "羰基 ": 4562,
      "苯基)-": 4563,
      "鳥嘌呤": 4564,
      "( r": 4565,
      " ) ( ": 4566,
      "n - 芐": 4567,
      "-2-醇": 4568,
      "3 - 苯基 - ": 4569,
      "1 - 苯基 - ": 4570,
      "羥基喹啉": 4571,
      "乙酯鹽酸鹽": 4572,
      "氨基-4-": 4573,
      "-1,1'-": 4574,
      "咪唑烷": 4575,
      " - 4 - ( ": 4576,
      "酸性橙": 4577,
      "烷基二甲基": 4578,
      "六氫 - ": 4579,
      "2 - 甲基 - ​": 4580,
      "1-甲基亞乙基)": 4581,
      "二硫代磷酸酯": 4582,
      "三甲基矽基)": 4583,
      "環 [ 3": 4584,
      "(r)-2-": 4585,
      "二苯并 [ b , ": 4586,
      "1,2,3,4-四氫": 4587,
      "metals basis": 4588,
      "聚 ( 氧 - 1 , 2 - 乙二基 ) ": 4589,
      " a - ": 4590,
      "%]": 4591,
      "', ": 4592,
      "亞甲基-": 4593,
      "光穩定": 4594,
      "分子": 4595,
      "對-": 4596,
      "正丙基": 4597,
      "甲脒": 4598,
      "異構": 4599,
      "4-甲基-2-": 4600,
      "1-​": 4601,
      "3 - 羥基 ": 4602,
      "1 - 甲基 ": 4603,
      "羥基哌啶": 4604,
      " [ b ] 呋喃": 4605,
      "磺醯基": 4606,
      "氟苯乙酮": 4607,
      "1,1'-聯萘": 4608,
      "[[4-": 4609,
      "2 , 6 - 二 ": 4610,
      "9h - 咔唑": 4611,
      "r , 5s ) - ": 4612,
      "(±)-": 4613,
      " 甲醯": 4614,
      " 劑 ": 4615,
      "(v": 4616,
      "-2,4-": 4617,
      "[1,1'-聯苯": 4618,
      "en": 4619,
      "l - 2 - ": 4620,
      "亞碸": 4621,
      "亞基 ) ": 4622,
      "十五": 4623,
      "卟啉": 4624,
      "和2 - 甲基 - 2 - 丙烯酸": 4625,
      "四水": 4626,
      "環已": 4627,
      "異 ": 4628,
      "異丁酯": 4629,
      "茀甲氧羰": 4630,
      "鈷 ( ii )": 4631,
      "阿拉": 4632,
      " , 3": 4633,
      "5-羥基": 4634,
      "二甲基矽": 4635,
      "2 , 1 - ": 4636,
      "5 - 甲基 - ": 4637,
      "羥基-5-": 4638,
      "3,5-二溴": 4639,
      "甲氧基苯乙酮": 4640,
      " 14": 4641,
      "2,3-二氯": 4642,
      " 基 - 2 - ": 4643,
      "噻吩-2-": 4644,
      "1h-吲哚": 4645,
      " 20": 4646,
      "20-": 4647,
      "甲基 ) - 2 - ": 4648,
      "水楊醛": 4649,
      "1 , 2 , 3 , 4 - ": 4650,
      "(甲)": 4651,
      ") ": 4652,
      "11 , ": 4653,
      "[1,": 4654,
      "t-": 4655,
      "三磷酸": 4656,
      "三水合物": 4657,
      "二硫醚": 4658,
      "亞基)": 4659,
      "單鹽酸鹽": 4660,
      "矽基 ) ": 4661,
      "苄基-": 4662,
      "4-羥基苯": 4663,
      "1 - 哌嗪": 4664,
      "乙氧基-": 4665,
      "4 , 7 - ": 4666,
      "磷酸鈉": 4667,
      "二甲胺基": 4668,
      "異丙基 ": 4669,
      "異丙基 - ": 4670,
      "r , 6": 4671,
      "( s ) - ( )": 4672,
      "4,4'-(": 4673,
      "5 , 6 , ": 4674,
      "2,2'-二": 4675,
      " 二鹽酸鹽": 4676,
      "苯氧基]": 4677,
      "甲硫基": 4678,
      "8,8-": 4679,
      " 氧基 ) - ": 4680,
      "2 , 5 - 二 ": 4681,
      "硫雜 - 1 - 氮雜雙環 [ ": 4682,
      "【口+": 4683,
      "tbu": 4684,
      "(1h)-": 4685,
      "2,3,4,5,6-": 4686,
      "不飽和": 4687,
      " 藍": 4688,
      "4 ( ": 4689,
      "b ": 4690,
      "op": 4691,
      "tc": 4692,
      "三聯苯": 4693,
      "二苯并": 4694,
      "二矽氧烷": 4695,
      "亞磷醯胺": 4696,
      "對氟": 4697,
      "烷酸": 4698,
      "異丁基": 4699,
      "皂苷": 4700,
      "蘋果": 4701,
      " - o - ": 4702,
      "4-碘": 4703,
      "5-甲基-2-": 4704,
      " ( ) - ": 4705,
      "4 - 氟": 4706,
      "3,1": 4707,
      "6-甲基-": 4708,
      "2 , 2 , 2 - ": 4709,
      "氧代 - 5 - ": 4710,
      "甲氧基苯基 ) ": 4711,
      " bet": 4712,
      "3,4-二氯": 4713,
      "二乙基 - ": 4714,
      " dm": 4715,
      "2-溴-4-": 4716,
      "脫氧-": 4717,
      "2 , 2 - 二甲基 - ": 4718,
      "三氟甲基)苯": 4719,
      "環氧乙烷基": 4720,
      "縮水甘油酯": 4721,
      "異硫氰酸酯": 4722,
      "α , α - ": 4723,
      "19": 4724,
      "29h": 4725,
      "7]": 4726,
      "ba": 4727,
      "gr": 4728,
      "yd": 4729,
      "γ - ": 4730,
      "丙基]-": 4731,
      "二乙醇": 4732,
      "四甲酸": 4733,
      "己醇": 4734,
      "戊二醇": 4735,
      "根合": 4736,
      "氯-": 4737,
      "溴甲基)": 4738,
      "生育": 4739,
      "苄基)": 4740,
      "麥芽": 4741,
      "2-羥": 4742,
      "3-硝基-4-": 4743,
      "2,2',": 4744,
      "4 - 哌啶": 4745,
      "4,4": 4746,
      "吡啶鹽酸鹽": 4747,
      "乙醯氧基": 4748,
      "-1-基": 4749,
      "-1-苯并吡喃": 4750,
      "10 , ": 4751,
      "羧酸 ": 4752,
      "羧酸乙酯": 4753,
      "甲氧基苯甲酸": 4754,
      " 15": 4755,
      "磷酸氫": 4756,
      "二苯膦": 4757,
      "氨基苯基)": 4758,
      "n-(3-": 4759,
      "二甲氧基矽烷": 4760,
      "二甲氧基三苯": 4761,
      "并[3,4-": 4762,
      "8 , 8 - ": 4763,
      "鄰苯二甲酸酐": 4764,
      "丁二醯亞胺": 4765,
      "三苯基膦)": 4766,
      "d ] 嘧啶": 4767,
      "防老劑 ": 4768,
      "3,4,4,5,5,6,": 4769,
      "阿拉伯": 4770,
      " 甲醯胺": 4771,
      "':": 4772,
      "f ] ": 4773,
      "li": 4774,
      "pe": 4775,
      "pv": 4776,
      "tp": 4777,
      "t - ": 4778,
      "乙氧化": 4779,
      "他汀": 4780,
      "光引發": 4781,
      "增白": 4782,
      "惡嗪": 4783,
      "氯甲酸": 4784,
      "異吲哚": 4785,
      "聚乙烯": 4786,
      "胺基 ] ": 4787,
      "苯磺醯": 4788,
      "鉻酸": 4789,
      "阻燃": 4790,
      "1-boc": 4791,
      "2,​": 4792,
      "基苯基)-": 4793,
      "-2-羥基": 4794,
      "-2-萘酚": 4795,
      " ( 2 ": 4796,
      "4 - [ [ ": 4797,
      "n-[": 4798,
      "1 - boc": 4799,
      "氨基吡咯烷": 4800,
      "氨基丁酸": 4801,
      "乙醯氯": 4802,
      "l - ( 1r , 2": 4803,
      "1h-1,2,4-三唑": 4804,
      "4 , 1 - ": 4805,
      "[ ( 2 - ": 4806,
      "1,3-二氫": 4807,
      "2,4-二氯苯": 4808,
      "磷酸胺": 4809,
      "1,2-二": 4810,
      "2 - ( 二甲基胺基 ) ": 4811,
      "3,4-二氫-": 4812,
      "1h-吡咯": 4813,
      "1 , 3 - 丙二胺": 4814,
      "4,5-二": 4815,
      "對甲苯胺": 4816,
      "20 - ": 4817,
      "馬來酸": 4818,
      "2-氟-5-": 4819,
      "9h-芴": 4820,
      "甘露糖": 4821,
      "二氮烯基]": 4822,
      " 0": 4823,
      "(甲基-1,2-": 4824,
      "bc": 4825,
      "c]": 4826,
      "mm": 4827,
      "乳油": 4828,
      "二甘醇": 4829,
      "凝膠": 4830,
      "四乙基": 4831,
      "天然": 4832,
      "對甲基": 4833,
      "嵌段": 4834,
      "氰基 - ": 4835,
      "糊精": 4836,
      "胞嘧啶": 4837,
      "苯乙醇": 4838,
      " - 3 , ": 4839,
      "2-苯基": 4840,
      "3-​": 4841,
      " ) ​": 4842,
      ")-oh": 4843,
      "三氟 ": 4844,
      "苯并 ": 4845,
      "氧代-2-": 4846,
      "氧代-1-": 4847,
      "異丙基-": 4848,
      "2-(二甲基胺基)": 4849,
      "r , ​": 4850,
      "2,3-二甲基": 4851,
      "2,6-二氟": 4852,
      "叔丁氧羰基": 4853,
      "三氟甲基)-": 4854,
      "2-甲基-3-": 4855,
      "4-溴-": 4856,
      "氨基甲酸叔丁酯": 4857,
      "1-甲基乙基)": 4858,
      "2h-吡喃": 4859,
      "1,5-環辛二烯": 4860,
      "( 3a": 4861,
      "1h - 1 , 2 , 4 - 三唑 - 1 - ": 4862,
      " ( 2h ) - ": 4863,
      "己內酯均聚物": 4864,
      "聚[氧": 4865,
      "2r": 4866,
      "三水": 4867,
      "三苯 ": 4868,
      "人蔘": 4869,
      "富馬": 4870,
      "對甲氧基苯": 4871,
      "氯 - 4 - ": 4872,
      "烯酸甲酯": 4873,
      "聯苯基": 4874,
      "苯基-3-": 4875,
      "豆蔻": 4876,
      "辛醇": 4877,
      "鈷(ii)": 4878,
      "( 6": 4879,
      "1-乙": 4880,
      "4 - 羥基苯": 4881,
      "1 , 1 , 1 - ": 4882,
      "羥基琥珀醯亞胺酯": 4883,
      "100": 4884,
      "羧酸甲酯": 4885,
      "氧代 - 1 - ": 4886,
      "四氫吡咯": 4887,
      "羥基苯甲醛": 4888,
      "環氧氯丙烷": 4889,
      " 基 - d - ": 4890,
      "二乙基 ": 4891,
      "r,6": 4892,
      "2-溴-": 4893,
      "2 , 4 - 二氯": 4894,
      "[2-(4-": 4895,
      "s,3": 4896,
      "酒石酸鹽": 4897,
      "十六烷基": 4898,
      "n - 叔丁氧羰基 - l - ": 4899,
      "6,7,7,8,": 4900,
      "高氯酸鹽": 4901,
      "3,4,5-三": 4902,
      "苯甲銨 ( 1 : 1 ) ": 4903,
      " 酮": 4904,
      "三鈉": 4905,
      "二羥基 ": 4906,
      "亞氨": 4907,
      "亞硫酸": 4908,
      "六甲基": 4909,
      "叔-": 4910,
      "四水合物": 4911,
      "毒素": 4912,
      "銨氯化物": 4913,
      "2-硝基-": 4914,
      "3-甲氧基": 4915,
      "n - 羥": 4916,
      "基 - d - ": 4917,
      "4 - 甲基": 4918,
      "甲氧基-1-": 4919,
      "吡啶酮": 4920,
      "環己基 - ": 4921,
      " - 1 - 醇": 4922,
      "呋喃核糖": 4923,
      "羥基苯乙酮": 4924,
      "環戊烯-1-": 4925,
      "7 - ( ": 4926,
      "7 - [ ": 4927,
      "1,4-苯二甲酸": 4928,
      "氨基 - 2 - ": 4929,
      "s , 3": 4930,
      "對甲苯磺酸": 4931,
      "氟化 ": 4932,
      "二苯甲烷": 4933,
      "1,6-己二醇": 4934,
      "環[3.3.": 4935,
      "2 ( 1h ) - ": 4936,
      "r , 4r ) - 1 , 7 , 7 - ": 4937,
      "2 - ​甲基 - ": 4938,
      "1,3,2-": 4939,
      "5h)-": 4940,
      "4,1-伸": 4941,
      "( rs ) - ": 4942,
      "l - ( 1r , 2r , 4r ) - 1 , 7 , 7 - ": 4943,
      "環[3.3.1.": 4944,
      "(5": 4945,
      "420 ] ": 4946,
      "5h-": 4947,
      "三羥基": 4948,
      "丙氧基": 4949,
      "九氟": 4950,
      "內醯胺": 4951,
      "固醇": 4952,
      "對苯二甲酸": 4953,
      "對苯二酚": 4954,
      "托品": 4955,
      "標準": 4956,
      "混合": 4957,
      "異戊": 4958,
      "硝酸鹽": 4959,
      "蘇丹": 4960,
      " - oh": 4961,
      "甲基胺": 4962,
      " , 與 ": 4963,
      "2,2,3,": 4964,
      "3 - 氨基 - ": 4965,
      "丙烯腈": 4966,
      "氯化n , n - 二甲基 - ": 4967,
      "10 , 1": 4968,
      "三甲基氯化銨": 4969,
      "磷酸 ": 4970,
      " as": 4971,
      "s)-(+)-": 4972,
      "r , 7": 4973,
      "硝基甲苯": 4974,
      "氯苯酚": 4975,
      "2 s ) - ": 4976,
      "酸性藍": 4977,
      "偶氮苯": 4978,
      "葡萄糖苷": 4979,
      "2 , 2 - [ ": 4980,
      "8 - 氧代 - 5 - ": 4981,
      "并 [ 3 , 4 - ": 4982,
      "n - [ 2 - [ ( 2 - 甲基 - 1 - 側氧 - 2 - 丙烯 - 1 - 基 ) 氧 ] ": 4983,
      "甲硫基)": 4984,
      "3',5'-": 4985,
      "棕櫚酸酯": 4986,
      "氮雜環丁烷": 4987,
      "二苯并[b,": 4988,
      "α-氫-ω-羥基": 4989,
      "221 ] 庚 - 2 - ": 4990,
      "1,1,1-三氟": 4991,
      "420 ] 辛 - 2 - 烯": 4992,
      "n - [ 2 - [ ( 2 - 甲基 - 1 - 側氧 - 2 - 丙烯 - 1 - 基 ) 氧 ] 乙基 ] - ": 4993,
      " y": 4994,
      "-6": 4995,
      "-dl-": 4996,
      "18-": 4997,
      "4h-": 4998,
      "bt": 4999,
      "ch": 5000,
      "f]": 5001,
      "丁基)-": 5002,
      "三(2-": 5003,
      "丙醚": 5004,
      "亞硝基": 5005,
      "催化劑": 5006,
      "單水合物": 5007,
      "巴豆": 5008,
      "氧基 ": 5009,
      "氫 - ": 5010,
      "烯醇": 5011,
      "硫基": 5012,
      "神經": 5013,
      "芐基 ": 5014,
      "螺[": 5015,
      "釕 ( ii )": 5016,
      " - 1": 5017,
      "甲基醚": 5018,
      "甲基矽烷": 5019,
      "2-苯": 5020,
      "3-碘": 5021,
      "1,7,7-": 5022,
      "5-甲基-": 5023,
      "2,1-": 5024,
      "二甲基苯": 5025,
      "4,4,5,": 5026,
      "5 - [ ": 5027,
      "5 - [ ( ": 5028,
      "乙醯苯": 5029,
      "環己酯": 5030,
      "3 , 7 ] ": 5031,
      "r ) - ( - ) - ": 5032,
      " 18": 5033,
      " ac": 5034,
      "丙酸 ": 5035,
      "二烯醛": 5036,
      " 基 - 1 - ": 5037,
      "1 , 2 - 乙二胺": 5038,
      " 基 ) - 2 - ": 5039,
      "3,3-三氟": 5040,
      "2-氨基-4-": 5041,
      " er": 5042,
      "2,3,6-": 5043,
      "環氧乙烷的聚合物": 5044,
      "1 - ( 4 - ": 5045,
      "并[1,2-": 5046,
      "分散紅": 5047,
      "甲基-4-哌啶": 5048,
      " 并 [ 1 , 2 - ": 5049,
      "9h-咔唑": 5050,
      "【口井】": 5051,
      "四氫 - 2h - 吡喃": 5052,
      " - ​2 - ": 5053,
      "永固紅": 5054,
      "2 ( 3h ) - ": 5055,
      "2 - ​丙烯酸": 5056,
      "四溴雙酚": 5057,
      "d]嘧啶": 5058,
      "(2h)-": 5059,
      "羥甲基)-1,3-丙二醇": 5060,
      "(1h,": 5061,
      ")酯": 5062,
      "5',": 5063,
      ":2": 5064,
      "] -": 5065,
      "]-4-": 5066,
      "or": 5067,
      "um": 5068,
      "​ ( ": 5069,
      "亞甲基 ": 5070,
      "冰染": 5071,
      "叔胺": 5072,
      "孕甾": 5073,
      "季戊四醇": 5074,
      "對氨基": 5075,
      "對苯二": 5076,
      "氯酸": 5077,
      "辛-2-烯": 5078,
      "鄰甲苯": 5079,
      "間苯二甲酸": 5080,
      " - 2 , 2 - ": 5081,
      "甲基氯": 5082,
      "2-[(": 5083,
      "2-乙基-2-": 5084,
      ", 與 ": 5085,
      "1-氨基": 5086,
      "甲氧基-3-": 5087,
      "苯基異氰酸酯": 5088,
      "苯基甲酯的聚合物": 5089,
      "吡啶甲酸": 5090,
      "苯并惡唑": 5091,
      "苯并三氮唑": 5092,
      "氨基-3-": 5093,
      "基 ) - ω - ": 5094,
      "硝基苯乙烯": 5095,
      "吡咯啶": 5096,
      "乙氧基 ) ": 5097,
      "哌啶甲酸": 5098,
      "氟苯基)-": 5099,
      "n,n-二乙": 5100,
      "丁酸甲酯": 5101,
      "丙氨酸 ": 5102,
      "3 - ( 2 - ": 5103,
      "2 , 4 - 二 ": 5104,
      "2h - 1 - 苯并吡喃": 5105,
      "2-氟-4-": 5106,
      "( - ) - 1 - ": 5107,
      "乙二基)]": 5108,
      "n-叔丁氧羰基-l-": 5109,
      " 亞 ": 5110,
      "α,α": 5111,
      "1h - 吲哚 - 3 - ": 5112,
      "防老劑": 5113,
      "紫外線吸收劑": 5114,
      "9h - 茀 - 9 - ": 5115,
      "3,4,4,5,5,6,6,7,7,8,": 5116,
      "氯化n , n - 二甲基 - n - [ 2 - [ ( 2 - 甲基 - 1 - 側氧 - 2 - 丙烯 - 1 - 基 ) 氧 ] 乙基 ] - ": 5117,
      "氯化n , n - 二甲基 - n - [ 2 - [ ( 2 - 甲基 - 1 - 側氧 - 2 - 丙烯 - 1 - 基 ) 氧 ] 乙基 ] - 苯甲銨 ( 1 : 1 ) ": 5118,
      " 雜質": 5119,
      "+%": 5120,
      "-4,4'-": 5121,
      "c-": 5122,
      "c , ": 5123,
      "e)-2-": 5124,
      "le": 5125,
      "倍半": 5126,
      "及 ": 5127,
      "四甲基 ": 5128,
      "大紅": 5129,
      "庚酸": 5130,
      "正丁酯": 5131,
      "烷基 ": 5132,
      "聯萘酚": 5133,
      "腎上": 5134,
      "鈀 ( ii )": 5135,
      "鈦酸": 5136,
      "間硝基苯": 5137,
      "鳥氨酸": 5138,
      " - 2 , 3 - ": 5139,
      "( 4": 5140,
      "3-氨基苯": 5141,
      "2,2": 5142,
      "丙烯基": 5143,
      "吡啶-2-": 5144,
      "吡啶基 ) ": 5145,
      "二氯-2-": 5146,
      "6 - 甲基 - ": 5147,
      "二氫 - 2 - ": 5148,
      "n , n - 二甲": 5149,
      "三甲基-2-": 5150,
      "氧代-3-": 5151,
      "甲醯肼": 5152,
      " an": 5153,
      "側氧-": 5154,
      "2-氯-3-": 5155,
      " de": 5156,
      "苯甲酸酯": 5157,
      "2 - 甲基 - 2 - 丙烯酸2 - ( 二甲基胺基 ) ": 5158,
      "十八烷基": 5159,
      "溴苯基)": 5160,
      "天冬氨酸 ": 5161,
      "惡唑啉": 5162,
      "并[2,3-": 5163,
      "全氟辛基": 5164,
      "分散黃": 5165,
      "水合 ": 5166,
      "橡膠促進劑": 5167,
      "mes": 5168,
      "1,1-二甲基乙基)": 5169,
      "與2-甲基-2-丙烯酸丁酯、": 5170,
      "嗎啡啉": 5171,
      "9h - 芴 - 9 - ": 5172,
      " 胺 ": 5173,
      " 的反應產物": 5174,
      "o ": 5175,
      "丹明": 5176,
      "二基": 5177,
      "二酚": 5178,
      "兒茶": 5179,
      "壬基": 5180,
      "氯乙基)": 5181,
      "氰基-3-": 5182,
      "異丁烯": 5183,
      "硒化": 5184,
      "組分": 5185,
      "羰基 ] ": 5186,
      "脫氫": 5187,
      " - ( ": 5188,
      " - 1 , 4 - ": 5189,
      "甲基苯基": 5190,
      "甲基丁酸": 5191,
      "4-[": 5192,
      "4-甲基苯": 5193,
      "3-硝基苯": 5194,
      "3-甲基-4-": 5195,
      "5-四甲基-": 5196,
      "3 - 甲基 ": 5197,
      "6-甲基": 5198,
      "3 , 4 , 6 - ": 5199,
      "-1-酮": 5200,
      " - 1 - 烯": 5201,
      "-5-羧酸": 5202,
      " a , ": 5203,
      "2,3-環氧": 5204,
      "酸性綠": 5205,
      "偶氮]-": 5206,
      "7 , 8 , ": 5207,
      "叔丁酯鹽酸鹽": 5208,
      "c12-": 5209,
      "溶劑紅": 5210,
      "溶劑黃": 5211,
      "二甲胺基)": 5212,
      "lt - ": 5213,
      "苯并二氮雜卓": 5214,
      "前列素": 5215,
      "-1,3,5-三嗪": 5216,
      "三羥甲基丙烷": 5217,
      "4 , 1 - 伸": 5218,
      " 素": 5219,
      "'',": 5220,
      "-10-": 5221,
      "-2,2'-": 5222,
      "5]": 5223,
      "mi": 5224,
      "{ ": 5225,
      "三甲苯": 5226,
      "二亞胺": 5227,
      "伐他汀": 5228,
      "和2-": 5229,
      "噻酚": 5230,
      "四酮": 5231,
      "直鏈": 5232,
      "硒酸": 5233,
      "硝基 ": 5234,
      "羥甲基 ) ": 5235,
      "羥乙基)-": 5236,
      "膽甾": 5237,
      "醋酸鹽": 5238,
      "鉛 ( ii )": 5239,
      "香草": 5240,
      "4-乙醯": 5241,
      "4-氨基苯": 5242,
      "2 - 羥": 5243,
      "1-哌啶": 5244,
      "5-氨基": 5245,
      "5-羥基-": 5246,
      "乙基醚": 5247,
      "4,7,": 5248,
      " - 2 - 基 ] ": 5249,
      "叔丁基 - ": 5250,
      "3 , 7 - ": 5251,
      "氯化鎂": 5252,
      "s ) - ( - ) - ": 5253,
      "d - ( ) - ": 5254,
      " 13": 5255,
      "基 ] - 1 - ": 5256,
      "吲哚鎓": 5257,
      "四氫 - 2 - ": 5258,
      "1,2-雙(": 5259,
      "吡喃半乳糖": 5260,
      "乙醇 ] ": 5261,
      "氟苯酚": 5262,
      "三氟甲基苯胺": 5263,
      "三苯基氯化": 5264,
      " pa": 5265,
      " 40": 5266,
      "3-溴-4-": 5267,
      "乙炔基": 5268,
      "1,1,2,2-": 5269,
      "2h-環戊": 5270,
      "c12 - ": 5271,
      "dma": 5272,
      "十四碳": 5273,
      "肉桂醛": 5274,
      "12a - ": 5275,
      "天門冬氨酸": 5276,
      "紫外線吸收劑 uv": 5277,
      "三苯基溴化膦": 5278,
      "2,2-二甲基-1,3-丙二醇": 5279,
      "4,4,5,5-四甲基-": 5280,
      "4,4,5,5-四甲基-1,3,2-": 5281,
      "(甲基": 5282,
      "-2,6-": 5283,
      "15-": 5284,
      "95": 5285,
      "9'-": 5286,
      "pm": 5287,
      "ra": 5288,
      "二羥": 5289,
      "二甲氧基-": 5290,
      "十七": 5291,
      "士林": 5292,
      "果糖": 5293,
      "正辛基": 5294,
      "氧乙酸": 5295,
      "氰基 ": 5296,
      "環糊精": 5297,
      "羰基 ] - ": 5298,
      "肉豆蔻": 5299,
      "鈦酸酯": 5300,
      "甲基環氧乙烷": 5301,
      "2-乙基": 5302,
      " , 5h ) - ": 5303,
      "3-乙醯": 5304,
      "5-異氰酸": 5305,
      "n-[3-(": 5306,
      "3,​": 5307,
      "丙烯酸甲酯": 5308,
      "丙烯酸乙酯": 5309,
      "-4-基)": 5310,
      "d-葡萄糖": 5311,
      " 16": 5312,
      "吡喃 ": 5313,
      "1h-苯并[": 5314,
      "酸性媒介": 5315,
      "反式-2-": 5316,
      "ci顏料黃": 5317,
      "[[2-(": 5318,
      "2,3,4,5-": 5319,
      "1-(3-": 5320,
      "維生素e": 5321,
      "9h-茀": 5322,
      "橡膠促進劑 ": 5323,
      "2-乙基己酯、": 5324,
      "1,2,4-三唑": 5325,
      "2,2,6,6-四": 5326,
      "二氫 - 3 - 甲基 - ": 5327,
      "與2 - 甲基 - 2 - 丙烯酸丁酯、": 5328,
      "咢】唑": 5329,
      "1h - 苯并 [ e ] 吲哚": 5330,
      "5 , 6 , 6 , 7 , ": 5331,
      "1 , 1 , 1 - 三氟": 5332,
      "l - ( 1r , 2r , 4r ) - 1 , 7 , 7 - 三甲基": 5333,
      "r , 7r ) - ": 5334,
      "-2,4-二": 5335,
      "/-": 5336,
      "18 ": 5337,
      "] ( ": 5338,
      "g - ": 5339,
      "三乙酸": 5340,
      "乙撐": 5341,
      "乙縮醛": 5342,
      "五 ": 5343,
      "呫噸": 5344,
      "安息": 5345,
      "康唑": 5346,
      "新戊四醇": 5347,
      "氯乙烯": 5348,
      "烯丙酯": 5349,
      "硫磷": 5350,
      "膦)": 5351,
      "色素": 5352,
      "醚化物": 5353,
      "釕(ii)": 5354,
      "4-正": 5355,
      "3-硝基": 5356,
      "n-[(": 5357,
      "[ 4 - ( ": 5358,
      "5 - 氨基 - ": 5359,
      "三氟乙酸": 5360,
      "三氟乙醯胺": 5361,
      "羥基乙基)": 5362,
      "-3-(": 5363,
      "二氫 - 5 - ": 5364,
      "7-氯": 5365,
      "n,n,n-": 5366,
      "氧代-5-": 5367,
      "甲氧基苯基)-": 5368,
      " 17": 5369,
      "四氫 ": 5370,
      "boc - d - ": 5371,
      "二苯乙烯": 5372,
      "2,3-二氟": 5373,
      "2,2-二氯": 5374,
      "2,2-二氟": 5375,
      "(+/-": 5376,
      "3 - ( n - ": 5377,
      "乙胺鹽酸鹽": 5378,
      "2 - 甲基 - 2 - 丙烯酸甲酯": 5379,
      "乙二醇單": 5380,
      "3 , 4 - 二 ": 5381,
      "三(羥甲基)": 5382,
      "乙基 ) - 2 - ": 5383,
      "n - 乙醯 ": 5384,
      "硫雜-1-氮雜雙環[": 5385,
      "熒光增白": 5386,
      "環丙烷羧酸": 5387,
      "lt-": 5388,
      "五甲基環戊二烯": 5389,
      "bzl": 5390,
      "1,7,7-三甲基": 5391,
      " 綠": 5392,
      " 一水合物": 5393,
      "(矽氧烷與聚矽氧烷": 5394,
      "-o-": 5395,
      "g-": 5396,
      "ol": 5397,
      "{ ( ": 5398,
      "傘形": 5399,
      "四氯化": 5400,
      "對甲基苯": 5401,
      "氧)": 5402,
      "氧 ) ] ": 5403,
      "氫醌": 5404,
      "溴芐": 5405,
      "胸苷": 5406,
      "香酸": 5407,
      "2-硝基": 5408,
      "1-碘": 5409,
      "1-乙基": 5410,
      "1-氨基-": 5411,
      "5-(4-": 5412,
      "n - 苄基 ": 5413,
      "丙烯醚": 5414,
      "6-羥基-": 5415,
      "苯基硼酸": 5416,
      "1 , ​ ": 5417,
      "吡啶 ": 5418,
      "吡啶基": 5419,
      "-3-吲哚": 5420,
      "甲苯基)": 5421,
      "硝基苯基 ) ": 5422,
      "3,5-雙(": 5423,
      "r ) - ( ) - ": 5424,
      "1,3-丙二胺": 5425,
      "1h - 四唑": 5426,
      "硫代)": 5427,
      "s)-(-)-": 5428,
      "r)-(+)-": 5429,
      "1 , 2 - 丙二醇": 5430,
      "1 , 2 - 乙二醇": 5431,
      "氨醯 ": 5432,
      " 基 ) - 1 - ": 5433,
      "2-丙烯酸, ": 5434,
      "2,2'-[": 5435,
      " on": 5436,
      "三甲氧基矽基)": 5437,
      "2 - [ 4 - ( ": 5438,
      " - n - 氧化物": 5439,
      "維生素b": 5440,
      "c.i.顏料黃": 5441,
      "1h , 1h , ": 5442,
      "(3a": 5443,
      "3-氟-4-": 5444,
      "亞甲二氧": 5445,
      " 的 ": 5446,
      "1,3,3-三甲基環己烷": 5447,
      "甲磺醯胺鹽": 5448,
      "分子篩": 5449,
      "氯化n , n - 二甲基 - n - [ 2 - [ ( 2 - 甲基 - 1 - 側氧 - 2 - 丙烯 - 1 - 基 ) 氧 ] 乙基 ] - 苯甲銨 ( 1 : 1 ) 與2 - 甲基 - 2 - 丙烯酸丁酯、": 5450,
      "(矽氧烷與聚矽氧烷)": 5451,
      "-3,5-二": 5452,
      "7 ": 5453,
      "bi": 5454,
      "otbu": 5455,
      "​-": 5456,
      "​ , ": 5457,
      "丁基]": 5458,
      "三矽氧烷": 5459,
      "乳化劑": 5460,
      "二環 [ ": 5461,
      "亞苯基": 5462,
      "亞基]": 5463,
      "亞磺醯胺": 5464,
      "交聯": 5465,
      "反-4-": 5466,
      "吩噻嗪": 5467,
      "氧基苯": 5468,
      "異辛酯": 5469,
      "羰基)": 5470,
      "胺基 - ": 5471,
      "茚酮": 5472,
      "萘磺酸": 5473,
      "西林": 5474,
      "酮鹽酸鹽": 5475,
      "鹼式": 5476,
      " - 1 ": 5477,
      " - dl - ": 5478,
      "2-甲氧基-": 5479,
      "4-​": 5480,
      "3-[(": 5481,
      "3-甲基-1-": 5482,
      "1-甲基-2-": 5483,
      "1-叔丁氧羰": 5484,
      "基 }": 5485,
      "n-芐": 5486,
      "丙烯酸 ": 5487,
      "吡啶鎓": 5488,
      "n , n , ": 5489,
      "(2-羥乙基)": 5490,
      " - 3 - ( 2 - ": 5491,
      "1h-吲哚-3-": 5492,
      "甲醛與": 5493,
      "1 , 3 - 雙 ( ": 5494,
      "2 , 3 - 二氫 - ": 5495,
      "2-甲基-5-": 5496,
      " re": 5497,
      "乙基己基)": 5498,
      "2 - 丙烯酸丁酯": 5499,
      "雙 [ 乙醇 ] ": 5500,
      "三甲基矽基": 5501,
      "丙氧基]": 5502,
      "1,6-二異氰酸": 5503,
      "異丁醯": 5504,
      "2-​丙烯酸": 5505,
      "2 - 甲基 - 1 - 側氧 - 2 - 丙烯 - 1 - 基 ) - ω - ": 5506,
      "茴香硫醚": 5507,
      "三氟甲烷磺酸": 5508,
      "α - ( 2 - 甲基 - 1 - 側氧 - 2 - 丙烯 - 1 - 基 ) - ω - ": 5509,
      "抗壞血酸": 5510,
      "1,1,3,3-四甲基": 5511,
      " l - ": 5512,
      "(無水": 5513,
      ",3": 5514,
      "[1,1'-聯": 5515,
      "aa": 5516,
      "a型稀釋劑≥": 5517,
      "co": 5518,
      "hi": 5519,
      "k00": 5520,
      "z-": 5521,
      "κo": 5522,
      "三乙醯": 5523,
      "三異丙基": 5524,
      "丙 ": 5525,
      "二乙烯": 5526,
      "二噻吩": 5527,
      "二乙醇胺": 5528,
      "二環己基膦": 5529,
      "八氟": 5530,
      "含a型稀釋劑≥": 5531,
      "四羧酸": 5532,
      "并四": 5533,
      "并噻唑": 5534,
      "庚二酮": 5535,
      "氨 ": 5536,
      "氰胺": 5537,
      "溴-": 5538,
      "特戊": 5539,
      "羥胺鹽酸鹽": 5540,
      "苯基苯": 5541,
      "苯甘氨酸": 5542,
      "萘醌": 5543,
      "螺 [ ": 5544,
      "鈀(ii)": 5545,
      "鋶, ": 5546,
      "2-[": 5547,
      "2 - ​ ": 5548,
      "1,2": 5549,
      "2,3,5-": 5550,
      "3,3,4,4,5,5,6,6,7,7,8,": 5551,
      "丙烯基)": 5552,
      "6-氟": 5553,
      "6-甲氧基": 5554,
      "[ 2 - ( ": 5555,
      "4,4',": 5556,
      "5 - o - ( ": 5557,
      "三氟甲氧基": 5558,
      "-1-烯": 5559,
      "-3-羥基-": 5560,
      "-1,3,": 5561,
      "咪唑并 [ ": 5562,
      "丙基三乙氧基矽烷": 5563,
      "三甲基甲矽烷": 5564,
      "2-(氯甲基)": 5565,
      "3,4-二氫": 5566,
      "氯苯甲酸": 5567,
      "噻唑烷": 5568,
      "1,4-丁二醇": 5569,
      "α-(2-": 5570,
      "二氟 ": 5571,
      "1 , 3 - 二 ": 5572,
      "1 , 3 - 丙二醇": 5573,
      "氧基)甲基]": 5574,
      " da": 5575,
      "s,4": 5576,
      "酸二鈉": 5577,
      "丙胺酸": 5578,
      "n - ( 2 - 羥乙基 ) ": 5579,
      " 50": 5580,
      "3 , 3 - 二甲基": 5581,
      "(2:1)": 5582,
      "3 s ) - ": 5583,
      "活性黃": 5584,
      "2',3'-": 5585,
      "3',4'-": 5586,
      "脂肪醇": 5587,
      "( 2s ) - ": 5588,
      "cbz - l - ": 5589,
      "cbz-l-": 5590,
      "2-​甲基-​": 5591,
      "乙醛縮": 5592,
      "五氟苯酯": 5593,
      "4.2.0]": 5594,
      "311 ": 5595,
      "[ 1 , 4 ] ": 5596,
      "n , n - 二異丙基 ) ": 5597,
      "2h - 環戊 [ b ] 呋喃": 5598,
      "異構體": 5599,
      "聚[氧(甲基-1,2-": 5600,
      "5 - o - ( 4 , 4 - ": 5601,
      " 聚合物": 5602,
      "1, ": 5603,
      "15 - ": 5604,
      "18 - ": 5605,
      "5 ( ": 5606,
      "h)-": 5607,
      "po": 5608,
      "s ": 5609,
      "ts": 5610,
      "丁基苯": 5611,
      "三羧酸": 5612,
      "對甲苯基": 5613,
      "氨合": 5614,
      "溶性": 5615,
      "環 ": 5616,
      "甜菜": 5617,
      "甲狀": 5618,
      "睪酮": 5619,
      "纈氨醯": 5620,
      "聚醚": 5621,
      "脫水": 5622,
      "膽固醇": 5623,
      "鋅鹽": 5624,
      "香葉": 5625,
      "( r , ": 5626,
      "1-羥基-": 5627,
      "-2-磺酸": 5628,
      "甲氧基)苯": 5629,
      "n-苄基": 5630,
      "n-苯基-": 5631,
      "3,7]": 5632,
      "丙烯醛": 5633,
      "苯基酯": 5634,
      "乙醯基 ": 5635,
      "乙酸鈉": 5636,
      "-3-己烯": 5637,
      "基 ) - 2 - ": 5638,
      " - 1 - 基 ] ": 5639,
      "1,3-二氧戊環": 5640,
      "呋喃糖": 5641,
      "d-(+)-": 5642,
      "磷酸二氫": 5643,
      "磷酸二鈉鹽": 5644,
      " - 3 - 羧酸": 5645,
      "四氫-2-": 5646,
      "硼酸鈉": 5647,
      "7 - 氧代": 5648,
      "吡咯烷醇": 5649,
      "4-(三氟甲基)": 5650,
      "4,6-二氯": 5651,
      "s - ( ": 5652,
      "二氧硼": 5653,
      "2,2'-聯": 5654,
      "2 , 2 - 二甲基": 5655,
      " or": 5656,
      "六氟磷酸": 5657,
      "2h-1-苯并吡喃": 5658,
      "甲基)-1,3,3-三甲基環己烷": 5659,
      "n,n'-雙(": 5660,
      "b ] 噻吩": 5661,
      " - n - [ ( ": 5662,
      "boc-d-": 5663,
      "2-羥基-3-": 5664,
      "2-羥基-5-": 5665,
      " 并 [ 2 , 3 - ": 5666,
      "1-溴-2-": 5667,
      "苄酯對甲苯磺酸鹽": 5668,
      "( - ) - 3 - ": 5669,
      "n , n , n - 三甲基 - ": 5670,
      "噁唑烷酮": 5671,
      "反式-4-丙基": 5672,
      "1h,1h,": 5673,
      " - 1 , 3 , ": 5674,
      "環丙烷羧酸酯": 5675,
      "5-氟-2-": 5676,
      "2,7-萘二磺酸": 5677,
      "2-丙烯酸酯, ": 5678,
      "雙(二苯基膦)": 5679,
      "1,3,4-噻二唑": 5680,
      "環 [ 3311 ": 5681,
      "( 6r , 7r ) - ": 5682,
      "傘形酮": 5683,
      "氯化n , n - 二甲基 - n - [ 2 - [ ( 2 - 甲基 - 1 - 側氧 - 2 - 丙烯 - 1 - 基 ) 氧 ] 乙基 ] - 苯甲銨 ( 1 : 1 ) 與2 - 甲基 - 2 - 丙烯酸丁酯、2 - 甲基 - 2 - 丙烯酸2 - ( 二甲基胺基 ) ": 5684,
      "4.2.0]辛-2-烯": 5685,
      " q": 5686,
      "24": 5687,
      "ha": 5688,
      "ma": 5689,
      "pc": 5690,
      "pi": 5691,
      "、2-丙烯酸": 5692,
      "乙基-4-": 5693,
      "二矽": 5694,
      "二十二碳": 5695,
      "噁烷": 5696,
      "庚烯酸": 5697,
      "抗氧化": 5698,
      "枸櫞": 5699,
      "氧-": 5700,
      "油酸酯": 5701,
      "洛爾": 5702,
      "消旋": 5703,
      "硫基)": 5704,
      "紅色": 5705,
      "紫紅": 5706,
      "酯化物": 5707,
      "靛紅": 5708,
      "3-[": 5709,
      "2 - 丁烯二酸": 5710,
      "1-[": 5711,
      "n - 苯甲醯": 5712,
      "3 - 甲基": 5713,
      "6-氨基": 5714,
      "乙基胺": 5715,
      "5 - 苯基 - ": 5716,
      "三氟苯": 5717,
      "乙醯乙醯": 5718,
      "乙烯基 ": 5719,
      "乙氧基 - ": 5720,
      "氧代-4-": 5721,
      "羥基苯基)-": 5722,
      "r , 2": 5723,
      "1h-四唑": 5724,
      "1,4-雙(": 5725,
      "溴化 ": 5726,
      "丙酮酸": 5727,
      "3 - ( 4 - ": 5728,
      " 基 ) - 3 - ": 5729,
      "( r ) - 3 - ": 5730,
      "反式,": 5731,
      "乙胺的化合物": 5732,
      " - 5 - 基 ) - ": 5733,
      "2,2'-(": 5734,
      "ci顏料": 5735,
      "α - d - ": 5736,
      "乙烯基醚": 5737,
      "三級丁酯": 5738,
      "十一碳": 5739,
      "半胱氨酸鹽酸鹽": 5740,
      "1h , 3h": 5741,
      "聚氧丙烯醚": 5742,
      " s , 5": 5743,
      "四甲基-3,5-": 5744,
      "2-羥基乙酯": 5745,
      "聚乙二醇單": 5746,
      "異苯并呋喃二酮": 5747,
      "4 , 5 , 6 - ": 5748,
      "α,α-": 5749,
      "苯丙氨醇": 5750,
      "o , o - 二乙基 - ": 5751,
      "葡聚糖凝膠": 5752,
      "( 1s , 2s ) - ": 5753,
      " , 31h - ": 5754,
      "221 ] 庚 - 2 - 基酯的聚合物": 5755,
      " 水合物": 5756,
      " 之聚合物": 5757,
      ",鹽酸鹽": 5758,
      ",無水": 5759,
      "13-": 5760,
      "6 ( ": 5761,
      "7a - ": 5762,
      "n-2-": 5763,
      "n6 - ": 5764,
      "se": 5765,
      "s t": 5766,
      "β,": 5767,
      "一氯": 5768,
      "丙三醇": 5769,
      "乙二 ": 5770,
      "乙基-3-": 5771,
      "二嗪": 5772,
      "二氨基 ": 5773,
      "沒食": 5774,
      "甘氨醇": 5775,
      "甲橋": 5776,
      "異辛": 5777,
      "羅丹明": 5778,
      "萘基)": 5779,
      "蒎烷": 5780,
      "鄰-": 5781,
      "鎓氯化物": 5782,
      "雙[(": 5783,
      "食用": 5784,
      "2-巰": 5785,
      "2-噻吩": 5786,
      ", 聚合 ": 5787,
      "4-叔丁基": 5788,
      "3-吲哚": 5789,
      "2 - 甲氧基 - ": 5790,
      "1-苯基-": 5791,
      "3 - ​ ": 5792,
      "二甲基氨基": 5793,
      "氨基酸": 5794,
      "2 , ​ ": 5795,
      "吡啶)": 5796,
      "三氟乙醯": 5797,
      "l - ( ) - ": 5798,
      "環己基-": 5799,
      "環己基)-": 5800,
      "l-谷氨酸": 5801,
      "叔丁基苯酚": 5802,
      "-3-羥基": 5803,
      " - 1 - 基 ] - ": 5804,
      "3,5-二(": 5805,
      "1,3-苯并": 5806,
      "2,4-二氟": 5807,
      "n - ( 2 , 6 - ": 5808,
      "二甲醚": 5809,
      "四氫萘酮": 5810,
      "環氧丙基醚": 5811,
      "2'-羥基-": 5812,
      "1 , 2 - 二苯基乙二胺": 5813,
      " tm": 5814,
      "丙二醇單": 5815,
      "脫氧 ": 5816,
      "三氟甲基 ) - ": 5817,
      "7,8-": 5818,
      "亞甲基雙[": 5819,
      "3 , 5 - 二羥基 - ": 5820,
      " me": 5821,
      "n-(2-羥乙基)": 5822,
      "異苯并呋喃酮": 5823,
      "生物素": 5824,
      "丙烯醯氧基": 5825,
      "n - 苄氧羰基 - l - ": 5826,
      "n - 芴甲氧羰基 - ": 5827,
      "氧 ) ] 雙 [ 乙醇 ] ": 5828,
      "1h , 3h , 5h ) - ": 5829,
      "沒食子": 5830,
      " w": 5831,
      " al": 5832,
      "-3,6-": 5833,
      "1 ( ": 5834,
      "14 - ": 5835,
      "25": 5836,
      "5.": 5837,
      "dl-2-": 5838,
      "kap": 5839,
      "l - 2 - 氨基 - ": 5840,
      "三碘": 5841,
      "三甲氧": 5842,
      "呱喃": 5843,
      "基甲基 ) - ": 5844,
      "孕酮": 5845,
      "愈創": 5846,
      "皂甙": 5847,
      "硝酸 ": 5848,
      "粉劑": 5849,
      "胡蘿": 5850,
      "膦酸二乙酯": 5851,
      "草胺": 5852,
      "辛基 ": 5853,
      "鄰氟": 5854,
      "鄰甲酚": 5855,
      "酞青": 5856,
      "鉛(ii)": 5857,
      "間甲苯": 5858,
      "順丁烯": 5859,
      " - 2 ": 5860,
      " - 4 , 4 - ": 5861,
      "2-氰": 5862,
      "2-甲氧基-4-": 5863,
      ", 99": 5864,
      "2 - 羥基 ": 5865,
      "1-金剛烷": 5866,
      " ( i ) ": 5867,
      "4 - 苯基 - ": 5868,
      "二甲基氨基 ) ": 5869,
      "氨基乙醇": 5870,
      "-4-磺酸": 5871,
      "二氯矽烷": 5872,
      "苯甲胺": 5873,
      "氨基-6-": 5874,
      "-1,5-": 5875,
      "1,3-苯二甲酸": 5876,
      "8-氧代-5-": 5877,
      " 基 - 5 - ": 5878,
      "硝基乙烯": 5879,
      "二苯基磷": 5880,
      "苯甲醯基-": 5881,
      "哌嗪-": 5882,
      "( s ) - 3 - ": 5883,
      "喹啉酮": 5884,
      "2-甲基-2-丙烯酸2-(二甲基胺基)": 5885,
      "十八酸": 5886,
      "9,9'-": 5887,
      "對甲苯磺醯胺": 5888,
      " pp": 5889,
      "雙[乙醇": 5890,
      "二氯化釕": 5891,
      "十六碳": 5892,
      "活性紅": 5893,
      "直接藍": 5894,
      "1-溴-4-": 5895,
      "鄰苯二甲酸二": 5896,
      "n - 甲基 - n - ": 5897,
      "-n-氧化物": 5898,
      "4,5,6,7-": 5899,
      "κn2": 5900,
      "rel-": 5901,
      "氫氧化銨": 5902,
      "glu": 5903,
      "乙酯、2-甲基-2-丙烯酸": 5904,
      "1 - 甲基乙基 ) ": 5905,
      "2,3,5,6-四氟": 5906,
      "三氧化二": 5907,
      "降冰片烯": 5908,
      "2 - 甲基 - ​2 - 丙烯酸": 5909,
      "硫雜 - 1 - 氮雜雙環 [ 420 ] 辛 - 2 - 烯": 5910,
      "29h , 31h - ": 5911,
      " ) ​ -": 5912,
      "環 [ 3311 3 , 7 ] ": 5913,
      " d - ": 5914,
      " 甲基 ": 5915,
      "-3'-": 5916,
      "17 - ": 5917,
      "ad": 5918,
      "cy": 5919,
      "he": 5920,
      "ox": 5921,
      "r)-2-": 5922,
      "s)": 5923,
      "va": 5924,
      "z , ": 5925,
      "丙醛": 5926,
      "卡巴": 5927,
      "叔戊": 5928,
      "吩嗪": 5929,
      "尿酸": 5930,
      "己二烯": 5931,
      "戊炔": 5932,
      "桃紅": 5933,
      "氧基 ) - ": 5934,
      "氧基 ] ": 5935,
      "氯苯胺": 5936,
      "烯醛": 5937,
      "異戊酯": 5938,
      "癸二酸": 5939,
      "米松": 5940,
      "美拉唑": 5941,
      "羧基苯": 5942,
      "羰基 ) ": 5943,
      "苄溴": 5944,
      "萘二甲酸": 5945,
      "蒎烯": 5946,
      "鄰氨基苯": 5947,
      "鎳(ii)": 5948,
      "青霉": 5949,
      "麥角": 5950,
      " - 2": 5951,
      " - 1 , 2 - ": 5952,
      "2-硝基苯": 5953,
      "2-萘酚": 5954,
      "2-硝基-4-": 5955,
      "2-甲氧基-5-": 5956,
      "1-甲基-3-": 5957,
      "基 甲基 ) - ": 5958,
      "-2-乙基己": 5959,
      " ( 3 - ": 5960,
      "二甲基矽氧烷": 5961,
      "3,3,3-三氟": 5962,
      "氨基乙基)": 5963,
      "甲基-6-": 5964,
      "乙酸叔丁酯": 5965,
      "-4-羥基-": 5966,
      "-1,6-": 5967,
      "磺醯)": 5968,
      " 19": 5969,
      "異丙基-2-": 5970,
      "異丙氧基": 5971,
      " ba": 5972,
      " bc": 5973,
      " br": 5974,
      "氨基苯氧基)": 5975,
      "吡咯烷鹽酸鹽": 5976,
      "r)-1,7,7-三甲基": 5977,
      "3,4-二甲基": 5978,
      "n,n-二異丙": 5979,
      "噻唑啉": 5980,
      "2,5-二溴": 5981,
      "5 , 7 - ": 5982,
      " te": 5983,
      "r,7": 5984,
      "2 - 甲基 - 2 - 丙烯酸2 - 乙基己": 5985,
      "三苯基磷": 5986,
      "二乙基氨基)": 5987,
      " ic": 5988,
      "2 - 丙烯酸 , ": 5989,
      "3,5-二叔丁基-4-": 5990,
      "甲基丙烯酸 ": 5991,
      "直接紅": 5992,
      "ω-羥基-": 5993,
      "3,4-二甲氧基苯": 5994,
      "4-氟-2-": 5995,
      "2 - 氨基 - 4 - ": 5996,
      "n - boc - 3 - ": 5997,
      "雙環[2.2.1]庚": 5998,
      "[(1-側氧-2-丙烯-1-": 5999,
      "(甲)醛": 6000,
      "生育酚": 6001,
      "1,5-環辛二烯)": 6002,
      "腎上腺素": 6003,
      "3,3,4,4,5,5,6,6,7,7,8,8,8-": 6004,
      "甜菜鹼": 6005,
      " 糖": 6006,
      "%,": 6007,
      "(9-": 6008,
      "-5,": 6009,
      "320 ] ": 6010,
      "bb": 6011,
      "c10 - ": 6012,
      "δ-": 6013,
      "一水合": 6014,
      "丁醛": 6015,
      "丙磺酸鈉": 6016,
      "丙醯氯": 6017,
      "二辛基": 6018,
      "亮氨酸 ": 6019,
      "十氫": 6020,
      "噻噸": 6021,
      "尿素": 6022,
      "庚基": 6023,
      "抑制": 6024,
      "松油": 6025,
      "氧烷": 6026,
      "氯乙醯": 6027,
      "甘胺酸": 6028,
      "碳酸二甲酯": 6029,
      "磺隆": 6030,
      "肌苷": 6031,
      "胡椒": 6032,
      "與1-": 6033,
      "金屬": 6034,
      "間甲苯胺": 6035,
      "甲基溴": 6036,
      "甲基丙酸": 6037,
      "甲基吡咯烷": 6038,
      "2-丁烯": 6039,
      "2-乙基-": 6040,
      " , ( ": 6041,
      "4-苯基": 6042,
      " ( 1 - ": 6043,
      "二甲基 - 2 - ": 6044,
      "3,3,": 6045,
      "1 - [ ( ": 6046,
      "1 - 氧代": 6047,
      "4,​": 6048,
      " - 2 - 亞": 6049,
      "5 - ​ ": 6050,
      "吡啶基)-": 6051,
      "基)-1,2-": 6052,
      "l-(+)-": 6053,
      "3 , ​ ": 6054,
      "6 - 氯 - ": 6055,
      "7-(": 6056,
      "乙氧基 ": 6057,
      "-5-氟": 6058,
      "二甲氨基 ) ": 6059,
      "四氫吡喃": 6060,
      "硼酸鉀": 6061,
      "2,3-二溴": 6062,
      "r)-(-)-": 6063,
      "2,6-二溴": 6064,
      "2,2-雙(": 6065,
      "1,4-苯二": 6066,
      "4,4'-雙(": 6067,
      "alpha - ( ": 6068,
      " op": 6069,
      "4-溴-3-": 6070,
      "六氫 - 2 - ": 6071,
      " p - ": 6072,
      "二甲氧基嘧啶": 6073,
      "二甲基-2,6-": 6074,
      " 二 ( ": 6075,
      "甲氧基 - 2 - ": 6076,
      "苯氧基 ] ": 6077,
      "2,4-二硝基苯": 6078,
      "分散藍": 6079,
      "馬來酸鹽": 6080,
      "c.i.顏料": 6081,
      "八氫 - ": 6082,
      "丙磺酸鈉鹽": 6083,
      " ( iv ) ": 6084,
      "6,7,8-": 6085,
      "n-甲基-n-": 6086,
      "四氫-2h-吡喃": 6087,
      "n-苄氧羰基-l-": 6088,
      "3 , 4 , 4 , 5 , ": 6089,
      "色酚a": 6090,
      "n-芴甲氧羰基-": 6091,
      "s , 5r , 6": 6092,
      "四甲酸二酐": 6093,
      "1 - boc - 3 - ": 6094,
      "9h-芴-9-": 6095,
      "環[3.3.1.1": 6096,
      "2 - ​丙烯酸 , ": 6097,
      "紫外線吸收劑uv": 6098,
      "7 , 8 , 8 , 8 - ": 6099,
      "1 , 1 , 1 - 三氟 - n - [ ( ": 6100,
      "(+/-)-": 6101,
      "(無水)": 6102,
      "3,3,4,4,5,5,6,6,7,7,8,8,8-十三氟": 6103,
      "1 , 1 , 1 - 三氟 - n - [ ( 三氟甲基 ) ": 6104,
      " 橙": 6105,
      " 醛": 6106,
      " 鈉": 6107,
      "2 ] ": 6108,
      "[含量≤": 6109,
      "dh": 6110,
      "ec": 6111,
      "n'": 6112,
      "td": 6113,
      "z d": 6114,
      "三氮": 6115,
      "三丁酯": 6116,
      "二碘": 6117,
      "二 [ ": 6118,
      "二環己基": 6119,
      "交換": 6120,
      "六水合": 6121,
      "四胺": 6122,
      "基酯 ": 6123,
      "巴比": 6124,
      "替苯胺": 6125,
      "松香": 6126,
      "氧基 ] - ": 6127,
      "海因": 6128,
      "硫胺": 6129,
      "硫氮雜卓": 6130,
      "碳酸二": 6131,
      "聚 [ ": 6132,
      "腺原": 6133,
      "苯酮": 6134,
      "苯甘氨醇": 6135,
      "賴氨酸 ": 6136,
      "鄰氯苯": 6137,
      "酯)": 6138,
      "香茅": 6139,
      "甲基咪唑": 6140,
      "4-吡啶": 6141,
      "4-氟苯": 6142,
      "4-硝基-": 6143,
      "4-甲基-5-": 6144,
      "3-氨": 6145,
      "5-​": 6146,
      "4 - 氨基苯": 6147,
      "n-[4-": 6148,
      "1 - 哌啶": 6149,
      "苯基丙氨酸": 6150,
      "1 , 2 , 3 , ": 6151,
      "吡啶-4-": 6152,
      "l - ( - ) - ": 6153,
      "4 , 6 ( ": 6154,
      "三甲基溴化銨": 6155,
      "phos": 6156,
      "甲基)苯": 6157,
      "哌啶醇": 6158,
      " ap": 6159,
      "吲哚-2-": 6160,
      "吡喃葡糖苷": 6161,
      "環戊酮": 6162,
      "2-(三氟甲基)": 6163,
      " bp": 6164,
      "氟苯腈": 6165,
      "硫酸 ": 6166,
      "二苯基脯氨醇": 6167,
      "丁酸 ": 6168,
      "3-(n-": 6169,
      "苯甲醯基)": 6170,
      "雙 ( 二苯基膦": 6171,
      "( s ) - 1 - ": 6172,
      "4,4'-二氨基": 6173,
      "5 , 5 - ": 6174,
      "4,6-二甲基": 6175,
      "( r ) - 1 - ": 6176,
      " tr": 6177,
      "乙氧基化": 6178,
      "鄰苯二酚": 6179,
      "n , n - 二甲基 - 2 - ": 6180,
      "基-1-(": 6181,
      "[2-[": 6182,
      "四氟乙烯": 6183,
      "2h - 吲哚": 6184,
      "2h , ": 6185,
      "苯氧基 ": 6186,
      "5-溴-4-氯": 6187,
      "氰基吡啶": 6188,
      "1 , 4 - 苯二胺": 6189,
      "活性艷": 6190,
      "2,2-二甲基-3-": 6191,
      "雙酚 a ": 6192,
      "三苯甲基 - l - ": 6193,
      "月桂基": 6194,
      "3,4,4,4-": 6195,
      "1,1-二甲基乙基)-": 6196,
      "1h - 吡唑 - 4 - ": 6197,
      "o , o - 二甲基 - ": 6198,
      "10,11-": 6199,
      "10,15,": 6200,
      "環己胺鹽": 6201,
      "1 , 5 - 環辛二烯": 6202,
      "二苯甲醯酒石酸": 6203,
      "alpha , alpha - ": 6204,
      "奎寧環": 6205,
      "98+%": 6206,
      "(v)": 6207,
      "8 - 氧代 - 5 - 硫雜 - 1 - 氮雜雙環 [ 420 ] 辛 - 2 - 烯": 6208,
      "蒎烷二醇": 6209,
      " 戊": 6210,
      " 6 ": 6211,
      "(羥甲基)-1,3-丙二醇": 6212,
      "-2'-": 6213,
      "23": 6214,
      "2(1h)-": 6215,
      "4a , ": 6216,
      "[b]呋喃": 6217,
      "l ": 6218,
      "ub": 6219,
      "z - ": 6220,
      "】啉": 6221,
      "丁二胺": 6222,
      "三乙酯": 6223,
      "三氯苯": 6224,
      "三乙二醇": 6225,
      "丙撐": 6226,
      "丙氨酸鹽酸鹽": 6227,
      "乙 ": 6228,
      "乙基-1-": 6229,
      "二亞": 6230,
      "二縮": 6231,
      "二基)": 6232,
      "亞氨基 ": 6233,
      "亞乙基 ) ": 6234,
      "仲丁": 6235,
      "六環": 6236,
      "反,": 6237,
      "吡哆": 6238,
      "巰基 - ": 6239,
      "己炔": 6240,
      "戊二烯": 6241,
      "末】啉": 6242,
      "染料": 6243,
      "氧基-": 6244,
      "氧)]": 6245,
      "氯吡啶": 6246,
      "氯 - 5 - ": 6247,
      "氰酸酯": 6248,
      "玫瑰": 6249,
      "甘氨醯 - l - ": 6250,
      "甲酸鹽": 6251,
      "異硫脲": 6252,
      "硼氫化": 6253,
      "碲化": 6254,
      "磷脂": 6255,
      "脯氨酸 ": 6256,
      "苄氧基": 6257,
      "蓖麻": 6258,
      "谷胱": 6259,
      "鄰溴": 6260,
      "醛基": 6261,
      "間二甲苯": 6262,
      "陽離子": 6263,
      "雙苯": 6264,
      " - 2 , 5 - ": 6265,
      "2-氯苯": 6266,
      "2-巰基": 6267,
      ", 4-": 6268,
      "4-苯": 6269,
      "3-苯": 6270,
      "3-甲氧基苯": 6271,
      "3-氯苯": 6272,
      "5-碘": 6273,
      "5-(2-": 6274,
      "基苯磺酸": 6275,
      " ( c": 6276,
      "n-氧化物": 6277,
      "二甲基氯矽烷": 6278,
      "丙烯酯": 6279,
      "[ 3 - ( ": 6280,
      "1 , 4 , ": 6281,
      " - 2 - 基 ) 氧": 6282,
      "三氟甲氧基)苯": 6283,
      "l - 谷氨酸": 6284,
      "基)-1,3-": 6285,
      "l-(-)-": 6286,
      "羥基乙氧基)": 6287,
      "苯并異噻唑": 6288,
      "3 , 3 , 4 , 4 , 5 , ": 6289,
      "iii": 6290,
      " [ 含量≤": 6291,
      "氯化錫": 6292,
      "二氫-4-": 6293,
      "4 , 4 - ( ": 6294,
      "氧代丁醯胺": 6295,
      "-5-烯": 6296,
      "-5-酮": 6297,
      "甲基)-2-": 6298,
      "1h - 四氮唑": 6299,
      "哌啶甲醇": 6300,
      "異丙胺": 6301,
      "異丙基 - 2 - ": 6302,
      "羥基苯基 ) - ": 6303,
      "二苯 ": 6304,
      "[(1-甲基亞乙基)": 6305,
      " b - ": 6306,
      " - 4 - 羥基 - ": 6307,
      "丙烷磺酸": 6308,
      "甲基 - 2 - ( ": 6309,
      "(+)": 6310,
      "(-)": 6311,
      " ta": 6312,
      "葡萄糖酸": 6313,
      "6 , 11 - ": 6314,
      " 26": 6315,
      "(s)-(+)-2-": 6316,
      "(s)-(-)-2-": 6317,
      "吡唑啉酮": 6318,
      "(r)-(-)-2-": 6319,
      "2-甲基-1-": 6320,
      " r - ": 6321,
      "苄基溴": 6322,
      "環氧乙烷與": 6323,
      "-15": 6324,
      "四甲基脲": 6325,
      "甲胺鹽酸鹽": 6326,
      "苯并咪唑酮": 6327,
      "3 , 3 - 二甲基 - ": 6328,
      "1,1,2,2,3,": 6329,
      "-​2-": 6330,
      ": 1 )": 6331,
      "直接黃": 6332,
      " 并 [ 3 , 4 - ": 6333,
      "丙氧基 ) ": 6334,
      "溶劑藍": 6335,
      "000": 6336,
      "rel - ( 1r , 2r , 4r ) - 1 , 7 , 7 - 三甲基": 6337,
      "4-氟-3-": 6338,
      "2.2.2]": 6339,
      "n - 乙基 - n - ": 6340,
      "5,5-二甲基": 6341,
      "2 - 羥基乙酯": 6342,
      "221 ] 庚烷": 6343,
      "edta": 6344,
      "edta ": 6345,
      "二硫化物": 6346,
      "亞甲基)]": 6347,
      "十三氟辛": 6348,
      "二叔丁基膦": 6349,
      "[1,4]": 6350,
      "lite": 6351,
      "1-boc-3-": 6352,
      "( 3ar , 4": 6353,
      "標準品": 6354,
      "5 , 6 , 6 , 7 , 7 , 8 , 8 , 8 - ": 6355,
      "氯化n , n - 二甲基 - n - [ 2 - [ ( 2 - 甲基 - 1 - 側氧 - 2 - 丙烯 - 1 - 基 ) 氧 ] 乙基 ] - 苯甲銨 ( 1 : 1 ) 與2 - 甲基 - 2 - 丙烯酸丁酯、2 - 甲基 - 2 - 丙烯酸2 - ( 二甲基胺基 ) 乙酯、": 6356,
      ", 99.": 6357,
      "r,7r)-": 6358,
      " 蘭": 6359,
      " 黑": 6360,
      " 4-": 6361,
      " o - ": 6362,
      " 溶液": 6363,
      "(z": 6364,
      "(甲氧基": 6365,
      ".鹽酸鹽": 6366,
      "12,": 6367,
      "3 ( 2h ) - ": 6368,
      "4''-": 6369,
      "as)-": 6370,
      "n, ": 6371,
      "n6-": 6372,
      "一縮": 6373,
      "丁基 ) ": 6374,
      "三(4-": 6375,
      "三苯胺": 6376,
      "三 - o - ": 6377,
      "丙氨醯": 6378,
      "二水合": 6379,
      "二鉀鹽": 6380,
      "五水": 6381,
      "倍他": 6382,
      "偶合": 6383,
      "勒烯": 6384,
      "對甲氧基": 6385,
      "己內醯胺": 6386,
      "氮化": 6387,
      "氯-2-": 6388,
      "溴 - 4 - ": 6389,
      "環四": 6390,
      "異戊酸": 6391,
      "紫羅": 6392,
      "肉鹼": 6393,
      "苄腈": 6394,
      "苄基-3-": 6395,
      "谷氨醯": 6396,
      "賴氨酸鹽酸鹽": 6397,
      "鄰甲基": 6398,
      "鄰二甲苯": 6399,
      "鄰甲苯基": 6400,
      "酞酸": 6401,
      "酞亞胺": 6402,
      "雌甾": 6403,
      "黃 g": 6404,
      "2-氨基苯": 6405,
      " , p": 6406,
      "4-[(": 6407,
      "4-溴苯": 6408,
      "5-硝基-2-": 6409,
      "-2-萘": 6410,
      " ( metals basis": 6411,
      "基)-ω-": 6412,
      "叔丁氧基": 6413,
      "-1-羧酸": 6414,
      "-1-丙醇": 6415,
      "-1,2,3-": 6416,
      "甲氧基聚 ( 氧 - 1 , 2 - 乙二基 ) ": 6417,
      "呋喃二酮": 6418,
      "甲氧基苯酚": 6419,
      "亞胺基": 6420,
      "1,2-二氯": 6421,
      "吡喃糖苷": 6422,
      "二苯碸": 6423,
      "r , 2 ": 6424,
      "2,3-二氫-": 6425,
      "2,3-二羥基": 6426,
      "6,1": 6427,
      "2,2-二": 6428,
      "3-(三氟甲基)": 6429,
      "異氰酸 ": 6430,
      "( s ) - 2 - ": 6431,
      "9 - 茀甲氧羰": 6432,
      "1 , 3 - 二氧戊環": 6433,
      " 28": 6434,
      "3,3-六氟": 6435,
      "1 , 1 - 聯": 6436,
      "四氟化": 6437,
      "并 [ b ] 呋喃": 6438,
      " e , ": 6439,
      "異氰酸苯酯": 6440,
      "-1,2-丙二醇": 6441,
      "3h,": 6442,
      "三甲氧基矽": 6443,
      "并[b]呋喃": 6444,
      "并[3,2-": 6445,
      "丙胺鹽酸鹽": 6446,
      " 氧基 - ": 6447,
      "2',4'-": 6448,
      "2',6'-": 6449,
      "三苯甲基-l-": 6450,
      "3.2.0]": 6451,
      "三乙氧基矽": 6452,
      "beta - d - 吡喃葡萄糖苷": 6453,
      " 醯 ": 6454,
      " - 1 , 3 , 5 - ": 6455,
      "( 1r , 2r ) - ": 6456,
      "2,2,6,6-四甲基-3,5-": 6457,
      "三苯基溴化磷": 6458,
      "亞硝基 ": 6459,
      "n-boc-3-": 6460,
      "2.2.1]庚烷": 6461,
      "磺醯基]苯基]": 6462,
      "三氟化硼": 6463,
      "2 , 2 , 6 , 6 - ": 6464,
      "與2-丙烯酸丁酯、": 6465,
      " ( v )": 6466,
      "2h - 環戊并 [ b ] 呋喃": 6467,
      "2 , 2 - [ 9h - 茀 - 9 - ": 6468,
      "四氫 - 2h - 吡喃 - 2 - 基 ) 氧": 6469,
      "熒光增白劑 ": 6470,
      "α-(2-甲基-1-側氧-2-丙烯-1-": 6471,
      "1 , 1 , 1 - 三氟 - n - [ ( 三氟甲基 ) 磺醯基 ] ": 6472,
      "-4,7-": 6473,
      "32": 6474,
      "77": 6475,
      "c,": 6476,
      "fc": 6477,
      "ty": 6478,
      "三正丁基": 6479,
      "三環己基膦": 6480,
      "中性": 6481,
      "二萘": 6482,
      "二丙基": 6483,
      "二醯亞胺": 6484,
      "化劑 ": 6485,
      "培南": 6486,
      "對二甲苯": 6487,
      "己酮": 6488,
      "己二酸二": 6489,
      "庚醇": 6490,
      "惡烷": 6491,
      "戊二酮": 6492,
      "普魯": 6493,
      "氟苯胺": 6494,
      "氯吡": 6495,
      "氯苯基 ) ": 6496,
      "氰酸": 6497,
      "特羅": 6498,
      "甘草": 6499,
      "甘氨酸 ": 6500,
      "甲碸": 6501,
      "異癸": 6502,
      "矽倍半": 6503,
      "砷酸": 6504,
      "碘酸": 6505,
      "碘鎓": 6506,
      "碳酸鈉": 6507,
      "秋蘭": 6508,
      "鄰氨基": 6509,
      "醛酸": 6510,
      "醯脲": 6511,
      "間苯二": 6512,
      "間苯二胺": 6513,
      "香蘭": 6514,
      "黴素": 6515,
      " - 2 , 6 - ": 6516,
      " - 9 , 9 - ": 6517,
      "3-溴苯": 6518,
      "1,7-": 6519,
      "2,2,4-": 6520,
      "2,6,6-": 6521,
      " ( b": 6522,
      " ( d": 6523,
      "4 - 甲基 ": 6524,
      "4 - ​ ": 6525,
      "甲氧苯基)": 6526,
      "n-苯": 6527,
      "n-羥基": 6528,
      "3,7,": 6529,
      "5 - ( 2 - ": 6530,
      "三氟甲基-": 6531,
      "乙醯乙醯苯胺": 6532,
      "苯并噻吩": 6533,
      "3 , 3 , 3 - ": 6534,
      "-1-萘": 6535,
      "(2-甲基": 6536,
      "二氯 - ": 6537,
      " ] [ ": 6538,
      "乙烯基 ] - ": 6539,
      "基 ) - l - ": 6540,
      "二氫 - 4 - ": 6541,
      "d - ( - ) - ": 6542,
      "三甲基銨": 6543,
      "二胺基": 6544,
      " am": 6545,
      "吡喃糖": 6546,
      "吡喃酮": 6547,
      "二苯酮": 6548,
      "[(三氟甲基)": 6549,
      " bs": 6550,
      "3,4-二氟": 6551,
      "環氧 ": 6552,
      "環氧乙基": 6553,
      "6,6'-": 6554,
      "二乙氨基": 6555,
      "1,4-環己": 6556,
      "1,4-環己烷": 6557,
      "雙 ( 2 - ": 6558,
      "α-d-": 6559,
      "烷基胺": 6560,
      "偶氮)": 6561,
      "3 - ( 3 - ": 6562,
      "反式)-": 6563,
      "r,​": 6564,
      "氨基 ] - 2 - ": 6565,
      "乙基 ] - 2 - ": 6566,
      " e ) - ": 6567,
      "[[4-(": 6568,
      " 二環 [ ": 6569,
      "苯酚的聚合物": 6570,
      "無水 ": 6571,
      "四甲基哌啶": 6572,
      "3-溴-5-": 6573,
      "4 , 6 - 二 ": 6574,
      "4,4-二甲基": 6575,
      "還原紅": 6576,
      "雙酚a": 6577,
      "9999": 6578,
      "甲磺酸酯": 6579,
      "κn30": 6580,
      "beta - d - 吡喃葡萄糖": 6581,
      "三苯基膦 ) ": 6582,
      "r , 5r ) - ": 6583,
      "鹼性紅": 6584,
      "甘露糖苷": 6585,
      "1.0]": 6586,
      "n-乙基-n-": 6587,
      "2 - 萘甲醯胺": 6588,
      "sil": 6589,
      "s,5r,6": 6590,
      "(6r,7r)-": 6591,
      "色酚 a": 6592,
      "甲氧基 ) 羰基 ] - ": 6593,
      "1,10-菲": 6594,
      "冰染偶合": 6595,
      "α,α'-": 6596,
      "α - ( 2 - 甲基 - 1 - 側氧 - 2 - 丙烯 - 1 - 基 ) - ω - 甲氧基聚 ( 氧 - 1 , 2 - 乙二基 ) ": 6597,
      "聚[氧(甲基-1,2-乙二基)]": 6598,
      "320 ] 庚烷": 6599,
      "二甲基-2,6-辛二烯": 6600,
      "3 , 3 , 4 , 4 , 5 , 5 , 6 , 6 , 7 , 7 , 8 , 8 , 8 - ": 6601,
      "2 , 2 , 6 , 6 - 四甲基 - ": 6602,
      "秋蘭姆": 6603,
      "冰染偶合組分": 6604,
      " 磺醯胺": 6605,
      "%)": 6606,
      "-β-": 6607,
      "-2,5-二": 6608,
      "21": 6609,
      "3a , ": 6610,
      "3(2h)-": 6611,
      "52": 6612,
      "cp": 6613,
      "ds": 6614,
      "m-": 6615,
      "n2": 6616,
      "n ( ": 6617,
      "sb": 6618,
      "ve": 6619,
      "y - ": 6620,
      "丁腈": 6621,
      "二基 ": 6622,
      "二酸酯": 6623,
      "二乙酸酯": 6624,
      "五水合物": 6625,
      "側鏈": 6626,
      "單甲酯": 6627,
      "單乙酯": 6628,
      "大豆": 6629,
      "對叔丁基": 6630,
      "對溴苯": 6631,
      "庚酸甲酯": 6632,
      "惡二唑": 6633,
      "正戊": 6634,
      "氟-": 6635,
      "氨酸鹽": 6636,
      "氫 ": 6637,
      "氰基 - 3 - ": 6638,
      "沙坦": 6639,
      "玉米": 6640,
      "甘肽": 6641,
      "甘氨醯-l-": 6642,
      "甲叉": 6643,
      "的醚化物": 6644,
      "硫醯": 6645,
      "碳化": 6646,
      "碳二亞胺": 6647,
      "羥苯": 6648,
      "羥甲基-": 6649,
      "脲嘧啶": 6650,
      "苯丙胺": 6651,
      "蒽酮": 6652,
      "鄰硝基": 6653,
      "鄰氨基苯甲酸": 6654,
      "錳 ( ii )": 6655,
      "間氯": 6656,
      "黃g": 6657,
      "2-氧代": 6658,
      "2-[[": 6659,
      "( 4 ": 6660,
      "4-三氟甲基": 6661,
      "3-胺": 6662,
      "1-吡咯烷": 6663,
      "n - 甲基 - 2 - ": 6664,
      "-2-丙醇": 6665,
      "n-α-": 6666,
      "1 - 丁醇": 6667,
      "苯基丁": 6668,
      "苯基丙酸": 6669,
      "1 , 3 , 2 - ": 6670,
      "吡啶基 ) - ": 6671,
      "乙醯乙酸": 6672,
      "l - 酪": 6673,
      "基)-5-": 6674,
      "環己基]": 6675,
      "-4-烯": 6676,
      " ] 氨基 ] - ": 6677,
      "乙烯基 - ": 6678,
      "二氫-5-": 6679,
      "7-羥基-": 6680,
      " - 1 - 基 ": 6681,
      "4 , 3 - ": 6682,
      "phe": 6683,
      "3,5-二氟": 6684,
      "磺醯基 ) ": 6685,
      "氧代 - 2 - ": 6686,
      "1,3-二氯": 6687,
      "甲醯 ": 6688,
      "異丙苯": 6689,
      "1,2-乙二胺": 6690,
      "8-羥基喹啉": 6691,
      "1h-四氮唑": 6692,
      "噻唑 - 4 - ": 6693,
      "2,5-二甲基-": 6694,
      "偶氮)-": 6695,
      " cl": 6696,
      "氧基)乙基]": 6697,
      " 2r": 6698,
      "2,2'-聯吡啶": 6699,
      "亞甲基]": 6700,
      "苄基氯": 6701,
      "2h,": 6702,
      " hcl": 6703,
      "3-氯-2-": 6704,
      "碘化 ": 6705,
      "-11-": 6706,
      "2 - [ [ ( ": 6707,
      " 5 ": 6708,
      "甲基丙烯酸甲酯": 6709,
      "a , a - ": 6710,
      "delt": 6711,
      "4 , 5 - 二氫 - ": 6712,
      "( - ) ": 6713,
      "n - 乙醯基 ": 6714,
      "( 1r , 2 ": 6715,
      "4 , 5 , 6 , 7 - ": 6716,
      "2,6-二氯-4-": 6717,
      ": 2 , 3 - ": 6718,
      "n - boc - l - ": 6719,
      "6 , 7 , 8 , ": 6720,
      "2,2,2-三氯": 6721,
      " 黃g": 6722,
      "離子交換": 6723,
      "n-boc-l-": 6724,
      "r,5s)-": 6725,
      "3,7-二甲基": 6726,
      "亞基雙 ( ": 6727,
      "c ] 吡咯": 6728,
      "1 , 1 - 聯苯 ] - ": 6729,
      "1 , 3 , 3 - 三甲基 - ": 6730,
      "基苯并咪唑": 6731,
      "基-3-甲基咪唑鎓": 6732,
      " beta - ": 6733,
      "(1h,3h,": 6734,
      "2,2,6,6-四甲基-4-哌啶": 6735,
      "1,6-二異氰酸己烷": 6736,
      "1h , 3h , 5h ) - 三酮": 6737,
      "愈創木": 6738,
      " ( 1 - )": 6739,
      "5-溴-4-氯-3-吲哚": 6740,
      "2 , 2 - [ 9h - 茀 - 9 - 亞基雙 ( ": 6741,
      "矽倍半氧烷": 6742,
      "3 , 3 , 4 , 4 , 5 , 5 , 6 , 6 , 7 , 7 , 8 , 8 , 8 - 十三氟辛": 6743,
      "% (": 6744,
      "((": 6745,
      "),": 6746,
      ", - ": 6747,
      "-4,": 6748,
      "14-": 6749,
      "12 ": 6750,
      "1''-": 6751,
      "2''-": 6752,
      "42": 6753,
      "6]": 6754,
      "7h - ": 6755,
      "[1-": 6756,
      "b)": 6757,
      "c10-": 6758,
      "hc ": 6759,
      "ir": 6760,
      "k0": 6761,
      "no": 6762,
      "rs": 6763,
      "tf": 6764,
      "ti": 6765,
      "三羥基-": 6766,
      "二乙醯": 6767,
      "二硝基苯": 6768,
      "二聚物": 6769,
      "亞鉈": 6770,
      "代苯": 6771,
      "仲丁基": 6772,
      "冠醚": 6773,
      "去氫": 6774,
      "呱嗪": 6775,
      "噻二嗪": 6776,
      "四水合": 6777,
      "基醚": 6778,
      "壬酯": 6779,
      "夫妥": 6780,
      "對碘": 6781,
      "對稱": 6782,
      "庚酮": 6783,
      "正亮氨酸": 6784,
      "氯-4-": 6785,
      "氯乙醯胺": 6786,
      "激素": 6787,
      "矽酸鈉": 6788,
      "磷化": 6789,
      "糠醛": 6790,
      "納夫妥": 6791,
      "結晶": 6792,
      "縮丙酮": 6793,
      "羧基 - ": 6794,
      "胺基 ": 6795,
      "苯丙酸": 6796,
      "藜蘆": 6797,
      "補骨": 6798,
      "辛基-": 6799,
      "過氧化物": 6800,
      "醇 ": 6801,
      "銅 ( ii )": 6802,
      "間溴": 6803,
      "順-": 6804,
      "頻哪": 6805,
      " - 1 , 1 - ": 6806,
      "2-甲氧基苯": 6807,
      "2-氰基": 6808,
      "4-異氰酸": 6809,
      "4-甲氧基-": 6810,
      "3-氟苯": 6811,
      "1-丁基": 6812,
      "1-哌嗪": 6813,
      "n - 2 - ": 6814,
      "n - 苯 ": 6815,
      "n - α - ( ": 6816,
      "4 - 氯 - ": 6817,
      " ) ] - ": 6818,
      "甲氧 ": 6819,
      "3,6,": 6820,
      "6-氨基-": 6821,
      "1 , 3 , 4 - ": 6822,
      "吡啶羧酸": 6823,
      "羥基萘": 6824,
      "-1-基)-": 6825,
      "苯甲酮": 6826,
      "-3-甲基": 6827,
      "-3-基)": 6828,
      "氧化二": 6829,
      "10 ": 6830,
      "甲氧基聚(氧-1,2-乙二基)": 6831,
      "硝基苯甲醚": 6832,
      "[ ( 2 ": 6833,
      "呋喃基": 6834,
      "d-(-)-": 6835,
      "n - ( 1 - ": 6836,
      "磷酸二乙酯": 6837,
      " ar": 6838,
      "1,2-二氫": 6839,
      "二苯酯": 6840,
      "甲基苯基)-": 6841,
      "乙烷磺酸": 6842,
      "n,n-雙(": 6843,
      "二苯基甲烷": 6844,
      "o - 叔丁": 6845,
      "4,4'-亞甲基": 6846,
      "烷基醚": 6847,
      "( r ) - 2 - ": 6848,
      " c )": 6849,
      "鄰苯二胺": 6850,
      "3,3-四氟": 6851,
      "4 - ( 3 - ": 6852,
      "n , n - 二甲基甲醯胺": 6853,
      "1,1'-亞甲基雙[": 6854,
      "fmoc - d - ": 6855,
      "六氟銻": 6856,
      " ma": 6857,
      " mp": 6858,
      "2h - ​": 6859,
      "異氰酸甲基)-1,3,3-三甲基環己烷": 6860,
      "7 , 8 - ": 6861,
      "基-l-賴氨酸": 6862,
      "乙基 - 2 - ": 6863,
      " 4 ": 6864,
      "2,4-二羥基-": 6865,
      "甲硫基-": 6866,
      "二氨基丙烷": 6867,
      "馬來酸酐": 6868,
      "2 - [ ( 1": 6869,
      "苯丙氨酸 ": 6870,
      "苄酯鹽酸鹽": 6871,
      "[ [ 2 - ( ": 6872,
      "n , n , n - 三甲基": 6873,
      "n - 乙醯 - l - ": 6874,
      "順式-": 6875,
      "【口咢】唑": 6876,
      "丙基 ] - 2 - ": 6877,
      "3 - 羥基 - 2 - ( ": 6878,
      "n-乙醯-l-": 6879,
      "聚氧乙烯聚氧丙烯醚": 6880,
      "[ ( 1s ) - ": 6881,
      "-2,7-": 6882,
      "beta-d-吡喃葡萄糖苷": 6883,
      "tran": 6884,
      "茴香醚": 6885,
      "11-二氫": 6886,
      "天門冬醯胺": 6887,
      "n - 叔丁氧羰基 - d - ": 6888,
      "1 - 甲基亞乙基 ) ": 6889,
      "3 , 6 - 二 ": 6890,
      " n - 氧化物": 6891,
      "osu": 6892,
      "二環[2.2.1]庚": 6893,
      "3,3',4,4'-": 6894,
      "氨甲基哌啶": 6895,
      "二苯并 [ b , e ] ": 6896,
      "4 - 氟苯基 ) - ": 6897,
      "grub": 6898,
      "光引發劑": 6899,
      "人蔘皂苷": 6900,
      "2 - ​甲基 - ​ , ": 6901,
      "與2-甲基-2-丙烯酸丁酯、2-甲基-2-丙烯酸2-(二甲基胺基)": 6902,
      "2-​丙烯酸, ": 6903,
      "5 - o - ( 4 , 4 - 二甲氧基": 6904,
      "7 - 氧代 - 4 - ": 6905,
      "反式,反式)-": 6906,
      "2 - 甲基 - 2 - 丙烯酸2 - 乙基己酯、": 6907,
      "3,3,4,4,5,5,6,6,7,7,8,8,8-十三氟辛酯": 6908,
      "2h , 2h - ": 6909,
      "10,15,20-": 6910,
      "[(三氟甲基)磺醯基]": 6911,
      "(1h,3h,5h)-": 6912,
      "grubbs": 6913,
      " 之": 6914,
      " 硫": 6915,
      " et": 6916,
      " 雙 ( ": 6917,
      "(c": 6918,
      "(1,5-環辛二烯)": 6919,
      "), ": 6920,
      "18,": 6921,
      "16 ": 6922,
      "33": 6923,
      "35": 6924,
      "6 ] ": 6925,
      "6as": 6926,
      "97": 6927,
      "at": 6928,
      "c8 - ": 6929,
      "ho": 6930,
      "h ) - ": 6931,
      "lu": 6932,
      "ni": 6933,
      "s - 2 - ": 6934,
      "、1,2-乙二醇": 6935,
      "三溴": 6936,
      "三甲酯": 6937,
      "三甲基-3-": 6938,
      "丙酸鹽酸鹽": 6939,
      "二腈": 6940,
      "二丙二醇": 6941,
      "二磺酸鈉": 6942,
      "二甲醯亞胺": 6943,
      "亞水楊": 6944,
      "呱啶": 6945,
      "喹嗪": 6946,
      "型 ": 6947,
      "基甲氧基 ) 羰基 ] - ": 6948,
      "堅牢": 6949,
      "壬酸": 6950,
      "富勒烯": 6951,
      "己烯酸": 6952,
      "次氮": 6953,
      "氨乙基)-": 6954,
      "氫鉀": 6955,
      "油脂肪酸": 6956,
      "環素": 6957,
      "甾醇": 6958,
      "異黃酮": 6959,
      "癸酸酯": 6960,
      "的丙烯酸": 6961,
      "石油": 6962,
      "磺基苯": 6963,
      "聚合": 6964,
      "聯苯二胺": 6965,
      "色胺": 6966,
      "苄氯": 6967,
      "茜素": 6968,
      "萘甲醯胺": 6969,
      "辛基 - ": 6970,
      "酯與": 6971,
      "銠(i)": 6972,
      "雙[2-": 6973,
      "鯨蠟": 6974,
      "麻黃": 6975,
      "甲基芐胺": 6976,
      "2-胺": 6977,
      "2-[(2-甲基-1-側氧-2-丙烯-1-基)氧]": 6978,
      "基)甲基]": 6979,
      "2,4,4-": 6980,
      "-2-甲醛": 6981,
      " ( 2": 6982,
      " ( p": 6983,
      "甲氧基]": 6984,
      "n-乙醯基": 6985,
      "3,5,5-": 6986,
      "1 - 丙醇": 6987,
      "[ [ ( ": 6988,
      "氨基丙酸": 6989,
      "氨基葡萄糖": 6990,
      "4,4,4-": 6991,
      "2 , 2 - ( ": 6992,
      "l-脯氨酸": 6993,
      "羥基嘧啶": 6994,
      "羥基丁酸乙酯": 6995,
      "-1-甲基": 6996,
      "-3-甲酸": 6997,
      "乙烯基-2-": 6998,
      "氯化銥": 6999,
      "氯化n,n-二甲基-": 7000,
      "甲苯磺醯": 7001,
      "二氫-3-": 7002,
      "10h - ": 7003,
      "咪唑鎓": 7004,
      "吡咯啉": 7005,
      "4 , ​": 7006,
      "-5-異苯并呋喃": 7007,
      "n - ( 2 , 3 - ": 7008,
      "吲哚啉": 7009,
      "二甲 ": 7010,
      "異丙氧": 7011,
      "的聚合物與": 7012,
      "1,2-二甲基": 7013,
      "1,2-二溴": 7014,
      "吡喃葡糖": 7015,
      "9-(": 7016,
      "羥基 - 3 - ": 7017,
      "氯苯基)-2-": 7018,
      "硫酸鉻": 7019,
      "硫酸鐵": 7020,
      "二乙氨基)": 7021,
      "噻唑-5-": 7022,
      "1 , 2 - a ] ": 7023,
      "1 , 2 - 環己二胺": 7024,
      "2,5-環己二烯": 7025,
      "苯甲醯基": 7026,
      "( s ) - ( - ) - 2 - ": 7027,
      "(1:": 7028,
      "( r ) - ( - ) - 2 - ": 7029,
      " t - ": 7030,
      "2-氨基-3-": 7031,
      " ep": 7032,
      "-1,3-二酮": 7033,
      "氨基甲酸甲酯": 7034,
      "酒石酸 ": 7035,
      "2 - [ 2 - ( ": 7036,
      " 氧 ": 7037,
      "b ] 吡啶": 7038,
      " 、2 - 丙烯酸": 7039,
      "氫化牛脂": 7040,
      "硬脂醯胺": 7041,
      "[4-(4-": 7042,
      "溴代 ": 7043,
      "乙醯丙酮 ": 7044,
      "二甲胺基 ) ": 7045,
      "氯代 ": 7046,
      "γ-丁內酯": 7047,
      "1-氯-2-": 7048,
      "[ ( 1r ) - ": 7049,
      "[ ( 1e ) - ": 7050,
      "2-乙基己酸": 7051,
      "己二酸與": 7052,
      "五氟苯基)": 7053,
      "2,4,6-三甲基苯基)": 7054,
      "異亞丙基": 7055,
      "3,3',5,5'-": 7056,
      "苯甲銨(1:1)": 7057,
      "三聚氰胺": 7058,
      "-2,5-二酮": 7059,
      "ome·hcl": 7060,
      "二苯并 [ b , f ] ": 7061,
      "不飽和脂肪": 7062,
      "并[1,2-a]": 7063,
      "2h - 1 - 苯并吡喃 - 2 - 酮": 7064,
      "9h-茀-9-": 7065,
      "硫雜-1-氮雜雙環[4.2.0]辛-2-烯": 7066,
      "1h,1h,2h,": 7067,
      "六氫 - 2 - 側氧 - ": 7068,
      "腺原氨酸": 7069,
      "基)-ω-甲氧基聚(氧-1,2-乙二基)": 7070,
      "3 , 3 , 4 , 4 , 5 , 5 , 6 , 6 , 7 , 7 , 8 , 8 , 8 - 十三氟辛酯 ": 7071,
      "麻黃鹼": 7072,
      " 的化合物": 7073,
      "(ⅱ": 7074,
      "1)": 7075,
      "2o": 7076,
      "23h - ": 7077,
      "6',": 7078,
      "a)": 7079,
      "n''-": 7080,
      "z , 1": 7081,
      "、2-甲基-2-丙烯酸": 7082,
      "丁三醇": 7083,
      "三 [ ": 7084,
      "三羥基 - ": 7085,
      "丙氨醯 - l - ": 7086,
      "二聚": 7087,
      "二異氰酸酯": 7088,
      "亞銅": 7089,
      "亞錫": 7090,
      "亞氨基)": 7091,
      "亞硝酸": 7092,
      "代催化劑": 7093,
      "半水合物": 7094,
      "合成": 7095,
      "咯啉": 7096,
      "噁嗪": 7097,
      "型)": 7098,
      "多巴": 7099,
      "惡茂": 7100,
      "松龍": 7101,
      "正戊基": 7102,
      "氧 ( ": 7103,
      "氯甲烷": 7104,
      "氰基-4-": 7105,
      "溴甲基": 7106,
      "烯基": 7107,
      "焦磷酸": 7108,
      "環庚烷": 7109,
      "的均聚物": 7110,
      "硝基-3-": 7111,
      "磺基苯基)": 7112,
      "糖酸": 7113,
      "級)": 7114,
      "苯乙醯": 7115,
      "藻糖": 7116,
      "貝司": 7117,
      "辛可": 7118,
      "鄰甲苯胺": 7119,
      "酸鈉鹽": 7120,
      "醯-": 7121,
      "錫 ( ii )": 7122,
      "錳(ii)": 7123,
      "鎳 ( ii )": 7124,
      "雙胍": 7125,
      "高 ": 7126,
      "2-脫氧": 7127,
      ", 98+%": 7128,
      "4-戊": 7129,
      "2 - 己內酯均聚物": 7130,
      "基-​": 7131,
      "1-萘酚": 7132,
      "5-[(": 7133,
      "5-甲氧基-2-": 7134,
      "2,3": 7135,
      "基苯甲酸甲酯": 7136,
      "-2-氧代-": 7137,
      "-2-基酯的聚合物": 7138,
      " ( m": 7139,
      "基 - 1 - ": 7140,
      "4 - 甲氧基 - ": 7141,
      "n-苯甲醯": 7142,
      "二甲基氯化銨": 7143,
      "基 ) 乙醯胺": 7144,
      "叔丁基-l-": 7145,
      "-4-甲酸": 7146,
      "咪唑烷酮": 7147,
      "吡咯酮": 7148,
      "1,3-苯二": 7149,
      "-5-磺酸": 7150,
      "呋喃 ": 7151,
      "呋喃基)": 7152,
      "5,10,15,20-": 7153,
      "n - ( 2 , 4 - ": 7154,
      "甲醯基-": 7155,
      "亞胺基 ": 7156,
      "二苯基-2-": 7157,
      "甲基苯甲酸甲酯": 7158,
      "r , 3 ": 7159,
      "氨基苯甲醛": 7160,
      "3,4-二氯苯": 7161,
      "6,11-二氫": 7162,
      "1 , 2 - 乙二 ": 7163,
      "1,4-苯二胺": 7164,
      "9 - ( ": 7165,
      "苯甲酸乙酯": 7166,
      "脫氧 - d - ": 7167,
      "n , n - 二甲基苯胺": 7168,
      " os": 7169,
      " ox": 7170,
      "s , 4": 7171,
      "甘氨酸乙酯": 7172,
      "-1,3-二側氧": 7173,
      "5'-o-(": 7174,
      "惡唑烷": 7175,
      "惡唑硼烷": 7176,
      "氨基甲酸 ": 7177,
      "芴甲氧羰基-l-": 7178,
      "芴甲氧羰基 - l - ": 7179,
      " gl": 7180,
      "氰基聯苯": 7181,
      "-15-": 7182,
      "n,n'-二甲基": 7183,
      "2 , 6 - 二": 7184,
      "(2s)-": 7185,
      "二氯化鋯": 7186,
      "三甲基矽氧基)": 7187,
      "2 - [ ( 2 - ": 7188,
      "維生素 b": 7189,
      "2-氟-6-": 7190,
      "3-羥基-4-": 7191,
      "4-氨基-3-": 7192,
      "4 , 5 - 二氫 - 3 - 甲基 - ": 7193,
      "1-溴-3-": 7194,
      "1h , 23h - ": 7195,
      "3,4-二羥基苯": 7196,
      "硫氰酸": 7197,
      "( 2r ) - ": 7198,
      "【口末】啉": 7199,
      "n-叔丁氧羰基-d-": 7200,
      "對硝基苯基 ": 7201,
      "remi": 7202,
      "正丁基 ": 7203,
      "3,4,5,6-": 7204,
      "2-乙基己基": 7205,
      "2,6-二甲基-4-": 7206,
      " 胺醯": 7207,
      "山梨糖醇": 7208,
      "3,3-二甲基-1-": 7209,
      "1 , 3 , 5 - 三嗪": 7210,
      "煙醯胺腺嘌呤": 7211,
      "4,5-二氫-3-": 7212,
      "-1,1'-聯苯": 7213,
      "1 , 2 , 3 , 4 - 四氫": 7214,
      " ( 2 : 1 )": 7215,
      "二苯并[b,f]": 7216,
      "1,1,1-三氟-n-": 7217,
      "lt - e": 7218,
      "十七烷": 7219,
      "1h-苯并[e]": 7220,
      "1h , 1h , 2h , 2h - ": 7221,
      ",31h-": 7222,
      "kapp": 7223,
      "1,1,2,2,3,3,4,4,4-": 7224,
      "補骨脂": 7225,
      "1h,1h,2h,2h-": 7226,
      "六氫 - 2 - 側氧 - 3 , 5 - ": 7227,
      "2 - 己內酯均聚物2 - [ ( 2 - 甲基 - 1 - 側氧 - 2 - 丙烯 - 1 - 基 ) 氧 ] ": 7228,
      " 艷": 7229,
      " s ) - ": 7230,
      " 樹脂": 7231,
      " 合 ": 7232,
      "16 - ": 7233,
      "28": 7234,
      "2, ": 7235,
      "22 ": 7236,
      "4 ) - ": 7237,
      "5a , ": 7238,
      "7'-": 7239,
      "[1,2-": 7240,
      "]和": 7241,
      "c8-": 7242,
      "car": 7243,
      "j酸": 7244,
      "、α - ( 2 - 甲基 - 1 - 側氧 - 2 - 丙烯 - 1 - 基 ) - ω - 甲氧基聚 ( 氧 - 1 , 2 - 乙二基 ) ": 7245,
      "丁基 ] - ": 7246,
      "丁二酮": 7247,
      "七水": 7248,
      "乙硫醇": 7249,
      "二[": 7250,
      "二肟": 7251,
      "二氨基-": 7252,
      "二硝基": 7253,
      "二丙烯酸酯": 7254,
      "亞硒酸": 7255,
      "單磷酸": 7256,
      "四乙醯": 7257,
      "四正丁基": 7258,
      "地平": 7259,
      "壬烯": 7260,
      "壬醇": 7261,
      "多聚": 7262,
      "對 ": 7263,
      "格列": 7264,
      "格雷": 7265,
      "正丙酯": 7266,
      "氟硼酸": 7267,
      "氧膦": 7268,
      "氨磺醯": 7269,
      "氨基)-1-": 7270,
      "氮卓": 7271,
      "氰乙基 ) - ": 7272,
      "溴苯胺": 7273,
      "潑尼": 7274,
      "炔丙基": 7275,
      "特丁基": 7276,
      "環丁烯": 7277,
      "異腈": 7278,
      "皮苷": 7279,
      "硼化": 7280,
      "硼酸酯": 7281,
      "羧基-": 7282,
      "聯噻吩": 7283,
      "胺基-2-": 7284,
      "苄基 ) ": 7285,
      "苄基 ) - ": 7286,
      "草酸鹽": 7287,
      "萜品": 7288,
      "赤式": 7289,
      "超干": 7290,
      "鉑 ( ii )": 7291,
      "鉑(ii)": 7292,
      "間甲酚": 7293,
      "雌二醇": 7294,
      "雙-(": 7295,
      "雜環戊烷": 7296,
      "麝香": 7297,
      "鼠李": 7298,
      " - 5 , ": 7299,
      " - 1 , 3 - ": 7300,
      " - 3 , 5 - ": 7301,
      " - 10 - ": 7302,
      "2-丁": 7303,
      "( 5": 7304,
      "( e , ": 7305,
      "4-甲基-3-": 7306,
      "4-[2-(": 7307,
      "3-乙氧": 7308,
      "3-甲氧基-4-": 7309,
      "1-[(": 7310,
      "1-甲基-4-": 7311,
      "1,1,2-": 7312,
      "5-硝基-": 7313,
      "2,6,": 7314,
      "-2-丙烯醯胺": 7315,
      "基 - dl - ": 7316,
      " ) 與 ": 7317,
      "n-甲基-2-": 7318,
      "二甲基甲矽烷": 7319,
      "二甲基(矽氧烷與聚矽氧烷)": 7320,
      "丙烯基 ) ": 7321,
      "6-甲基吡啶": 7322,
      "6-甲氧基-2-": 7323,
      "氨基脲": 7324,
      "氨基乙酸": 7325,
      "1 , 1 , 2 , ": 7326,
      "2 , 12a - ": 7327,
      "5 - 甲氧基 - ": 7328,
      "乙醯基 ] ": 7329,
      "乙醯乙酸乙酯": 7330,
      "l - 脯氨酸": 7331,
      "3 , ​": 7332,
      "n , o - ": 7333,
      "基]偶氮]": 7334,
      "6 - [ ( ": 7335,
      "乙烯基)": 7336,
      "甲苯 ": 7337,
      "n , n - 二": 7338,
      "n , n - 二乙基": 7339,
      "硝基苯基)-": 7340,
      "3,5-雙": 7341,
      "雙(4,1-伸": 7342,
      "1,3-二氫-": 7343,
      "5,6,7,8-": 7344,
      "n - ( 5 - ": 7345,
      "n - ( 9 - ": 7346,
      "1h - 嘌呤": 7347,
      "哌啶鹽酸鹽": 7348,
      "哌啶甲酸乙酯": 7349,
      "甲醯基)": 7350,
      " - 3 - 醇": 7351,
      "四氫糠": 7352,
      "四氫噻吩": 7353,
      "1,2-環氧": 7354,
      "1,2-二苯基": 7355,
      "7 - { ( ": 7356,
      "9-芴": 7357,
      "beta , ": 7358,
      "beta,": 7359,
      "苯甲醯)": 7360,
      "2-氯乙基": 7361,
      "α-溴代": 7362,
      "4,4'-二甲氧基三苯": 7363,
      "4,6-二甲氧基嘧啶": 7364,
      "氧基乙酸": 7365,
      "酸性紫": 7366,
      " s o": 7367,
      " ti": 7368,
      " di": 7369,
      " do": 7370,
      "吡唑酮": 7371,
      "2-溴-6-": 7372,
      "乙二醇酯": 7373,
      "(r)-(+)-2-": 7374,
      "2-氨基-5-溴": 7375,
      "叔丁基二甲基矽烷": 7376,
      "s-(-)-": 7377,
      "fmoc-d-": 7378,
      "并 [ 3 , 2 - ": 7379,
      "2h - 1 , 4 - ": 7380,
      "三氟甲基)苯基]": 7381,
      "琥珀酸酯": 7382,
      "beta-丙氨酸": 7383,
      "1 - ( 2 - ": 7384,
      "雙[4-(": 7385,
      "3,5-二碘": 7386,
      "全氟 ": 7387,
      "n - ( 2 - 羥": 7388,
      "n - ( 2 - 羥基": 7389,
      "1,1,1,3,": 7390,
      "苯并 [ e ] 吲哚": 7391,
      "b ] 吲哚": 7392,
      "直接黑": 7393,
      "雙酚a ": 7394,
      "2',4',": 7395,
      "丙氧基 ": 7396,
      "十四烷基": 7397,
      "二酸二乙酯": 7398,
      "b]吡啶": 7399,
      "巰基乙酸": 7400,
      "乙醯丙酮)": 7401,
      "3,5-二甲基-4-": 7402,
      "丁二基)": 7403,
      "1,2,4-苯三": 7404,
      "4 - [ 2 - ( ": 7405,
      " 紅b": 7406,
      "( 1s , 2 ": 7407,
      "n - boc - 4 - ": 7408,
      "-2,3-二酮": 7409,
      "(1r,2r,4": 7410,
      " 單 ": 7411,
      "三甲矽": 7412,
      "三甲矽基": 7413,
      "乙基]-苯甲銨(1:1)": 7414,
      "前列腺素": 7415,
      "丙基甲基二甲氧基矽烷": 7416,
      "氨甲基吡咯烷": 7417,
      "2-甲基-​2-丙烯酸酯, ": 7418,
      "混合物)": 7419,
      "2,4,6,8-": 7420,
      "omeg": 7421,
      "[(2-甲基-1-側氧-2-丙烯-1-基)氧]乙基]-苯甲銨(1:1)": 7422,
      "n-[2-[(2-甲基-1-側氧-2-丙烯-1-基)氧]乙基]-苯甲銨(1:1)": 7423,
      "光穩定劑 ": 7424,
      "4,4'-(1-甲基亞乙基)": 7425,
      "2 , 2 , 2 - 三氟 ": 7426,
      "α , α - [ ( ": 7427,
      "阻燃劑": 7428,
      "己內酯均聚物2-[(2-甲基-1-側氧-2-丙烯-1-基)氧]": 7429,
      "2-乙基-2-(羥甲基)-1,3-丙二醇": 7430,
      "leu": 7431,
      "9h - 芴 - 9 - 基甲氧基 ) 羰基 ] - ": 7432,
      "2h-環戊并[b]呋喃": 7433,
      "4,4,5,5-四甲基-1,3,2-二氧硼": 7434,
      "安息香": 7435,
      "(3ar,4": 7436,
      "1-叔丁氧羰基-3-": 7437,
      "庚二酮酸)": 7438,
      "枸櫞酸": 7439,
      "環 [ 3311 3 , 7 ] 癸": 7440,
      "丙撐二胺": 7441,
      "蓖麻油": 7442,
      " ( metals basis )": 7443,
      "3.2.0]庚烷": 7444,
      "1 , 1 , 1 - 三氟 - n - [ ( 三氟甲基 ) 磺醯基 ] 甲磺醯胺鹽": 7445,
      "% (metals basis": 7446,
      "n - α - ( 9 - 茀甲氧羰": 7447,
      "氯化n,n-二甲基-n-[2-[(2-甲基-1-側氧-2-丙烯-1-基)氧]乙基]-苯甲銨(1:1)": 7448,
      "4 , ​7 - ": 7449,
      "(ⅱ)": 7450,
      "7 - { ( 1": 7451,
      " h - ": 7452,
      " 氨醯": 7453,
      " 苯基 ) ": 7454,
      " 氨醯胺": 7455,
      " 及 ": 7456,
      "(苯基": 7457,
      "(r,": 7458,
      "-2,2-": 7459,
      "26": 7460,
      "27": 7461,
      "21h , 23h - ": 7462,
      "36": 7463,
      "311": 7464,
      "5 ] ": 7465,
      "7a-": 7466,
      "8o": 7467,
      "8a - ": 7468,
      ": 2": 7469,
      "[1,1'-": 7470,
      "[1,2,": 7471,
      "fc - ": 7472,
      "n(": 7473,
      "n2 - ": 7474,
      "pd": 7475,
      "s-2-": 7476,
      "s ( ": 7477,
      "tt": 7478,
      "z,": 7479,
      "一氫": 7480,
      "丁錫": 7481,
      "三甲胺": 7482,
      "三甘醇": 7483,
      "三-o-": 7484,
      "丙啶": 7485,
      "丙基苯": 7486,
      "丙氨醯-l-": 7487,
      "乙內": 7488,
      "乙硫": 7489,
      "乙基苯酚": 7490,
      "二氨": 7491,
      "二鹽酸": 7492,
      "二縮水甘油醚": 7493,
      "亞硫酸鈉": 7494,
      "及其": 7495,
      "反-": 7496,
      "四羥基": 7497,
      "四苯基-": 7498,
      "埃索": 7499,
      "妥爾": 7500,
      "對羥基": 7501,
      "對氟苯": 7502,
      "己基 ": 7503,
      "戊基)": 7504,
      "新癸酸": 7505,
      "氨乙基 ) - ": 7506,
      "氨丙基三甲氧基矽烷": 7507,
      "氮氧化物": 7508,
      "氰菊酯": 7509,
      "煙鹼": 7510,
      "特丁": 7511,
      "環丙基-": 7512,
      "甲氨基)": 7513,
      "甲苯基 ) ": 7514,
      "癸醇": 7515,
      "的 ": 7516,
      "精氨酸鹽酸鹽": 7517,
      "羅啉": 7518,
      "羥甲基 ) - ": 7519,
      "羧甲基": 7520,
      "羧酸鹽酸鹽": 7521,
      "聚 ": 7522,
      "聚丙二醇": 7523,
      "自由": 7524,
      "苄基)-": 7525,
      "茚醇": 7526,
      "蔗糖": 7527,
      "蘇糖醇": 7528,
      "血管": 7529,
      "醇乙酸酯": 7530,
      "鎂鹽": 7531,
      "間氟": 7532,
      "黃嘌呤": 7533,
      " - 2 ( 3h ) - ": 7534,
      " - 六氫 - 2 - 側氧 - 3 , 5 - ": 7535,
      "2-吡啶": 7536,
      "2-[2-(": 7537,
      "( s , ": 7538,
      "4-乙基": 7539,
      "3-苯基-2-": 7540,
      "2 - 乙基 - ": 7541,
      "2 - 丙烯醯胺": 7542,
      "1-乙醯": 7543,
      "1-苯基-2-": 7544,
      "5-甲氧基": 7545,
      "n - 苄": 7546,
      "苯基膦": 7547,
      "苯基甘氨酸": 7548,
      "] ] ": 7549,
      " - 2 - [ ( ": 7550,
      " - 2 - 亞基 ) ": 7551,
      "2 , 6 , 6 - ": 7552,
      "5 - ( 4 - ": 7553,
      "吡啶-5-": 7554,
      "l - 纈": 7555,
      "環己 ": 7556,
      "磺酸鉀": 7557,
      "羥基丙酸": 7558,
      "羥基丁酸": 7559,
      "苯并噁唑": 7560,
      "-1-基]": 7561,
      "甲基 - 3 - ": 7562,
      "6 - 羥基 - ": 7563,
      "-1,10-": 7564,
      "咪唑并[": 7565,
      "4 , ​ ": 7566,
      "4 , 4 , 5 , ": 7567,
      "磺醯基 ] - ": 7568,
      "磷酸二鈉": 7569,
      "1h - 苯并三唑": 7570,
      "基-2-甲基": 7571,
      "二甲酚": 7572,
      "二甲醛": 7573,
      "環戊基 }": 7574,
      " bb": 7575,
      " b , ": 7576,
      " b )": 7577,
      "聯苯-4-": 7578,
      "3,4-環氧": 7579,
      "3,4-亞甲二氧": 7580,
      "二烯丙基": 7581,
      "2,6-雙(": 7582,
      "丙烷磺酸鈉": 7583,
      "二酮 , ": 7584,
      "哌嗪 - ": 7585,
      "5 , 10 , 1": 7586,
      "反式 - 4 - ": 7587,
      " c ": 7588,
      " ci": 7589,
      " c12 - ": 7590,
      "2-甲基-2-丙烯酸酯": 7591,
      " 25": 7592,
      " 27": 7593,
      "環己烷甲酸": 7594,
      "2-溴-1-": 7595,
      " - 5 - 烯": 7596,
      "二氧 ": 7597,
      "n-(9-": 7598,
      "2-氨基-6-": 7599,
      "十八酯": 7600,
      " ol": 7601,
      "苄基醚": 7602,
      "異氰酸基": 7603,
      "酯 、": 7604,
      "霉素 a": 7605,
      "三甲氧基矽基 ) ": 7606,
      "2 - [ [ ": 7607,
      "(2r,3": 7608,
      "n,n-二甲基苯胺": 7609,
      "胺基甲酸": 7610,
      "雙 [ ω - ": 7611,
      "十二烷基 ": 7612,
      "3-羥基-2-(": 7613,
      "2,6-二異丙": 7614,
      "二酸二甲酯": 7615,
      "氧雜卓": 7616,
      "b]噻吩": 7617,
      "( 2s , ": 7618,
      "( 2e ) - ": 7619,
      "八氫 - ​": 7620,
      "dpp": 7621,
      "r-(+)-": 7622,
      "羥乙基哌嗪": 7623,
      " 醯基 ": 7624,
      "( 3s ) - ": 7625,
      "( 3r ) - ": 7626,
      "4 - [ 4 - ( ": 7627,
      "扁桃酸甲酯": 7628,
      "beta-d-吡喃葡萄糖": 7629,
      "trt": 7630,
      "偶聯劑 ": 7631,
      " 胺酸 ": 7632,
      "2 , 4 , 6 - 三甲基": 7633,
      "3h ) - 酮": 7634,
      "三氟甲磺酸酯": 7635,
      "(rs)-": 7636,
      "亞氨基二乙酸": 7637,
      "4.1.0]": 7638,
      "1 - 甲基乙基 ) - ": 7639,
      "三苯基溴化鏻": 7640,
      "3,4,5-三氟": 7641,
      "r,5r)-": 7642,
      "矽烷偶聯劑 ": 7643,
      "喹唑啉酮": 7644,
      "氯 - 3 - 吲哚": 7645,
      " - 2 , 4 , 6 ( ": 7646,
      "o,o-二甲基-": 7647,
      "o,o-二乙基-": 7648,
      "二十碳": 7649,
      "n - 甲基氨基甲酸酯": 7650,
      "水解產物": 7651,
      "r , 3r , 5s ) - ": 7652,
      "山梨醇酐": 7653,
      "onic": 7654,
      "l - 2 - 氨基 ": 7655,
      "10 , 11 - ": 7656,
      "胞嘧啶核苷": 7657,
      "meso - ": 7658,
      "壬基酚": 7659,
      "并四苯甲醯胺": 7660,
      "2h - 環戊 [ b ] 呋喃 - 6 - ": 7661,
      "rel-(1r,2r,4": 7662,
      "2 - ​丙烯酸 , 2 - ​甲基 - ​ , ": 7663,
      "巴比妥": 7664,
      "聚 [ 氧 ( ": 7665,
      "氧)]雙[乙醇": 7666,
      "谷胱甘肽": 7667,
      "1,1,2,2,3,3,4,4,4-九氟": 7668,
      "1 , 1 , 2 , 2 , 3 , ": 7669,
      "1 , 1 , 1 - 三氟 - n - [ ( 三氟甲基 ) 磺醯基 ] 甲磺醯胺鹽 ( 1 : 1 )": 7670,
      "埃索美拉唑": 7671,
      " - 六氫 - 2 - 側氧 - 3 , 5 - 亞甲基 - ": 7672,
      "八氫 - ​4 , ​7 - ": 7673,
      " 丙氨酸": 7674,
      " 氨基 ": 7675,
      " n ": 7676,
      " ] - 2 - ": 7677,
      " 胺酸": 7678,
      "'''-": 7679,
      "(苯": 7680,
      "(e,": 7681,
      "(e)-2-": 7682,
      "-oh": 7683,
      "11 ": 7684,
      "8a": 7685,
      "[[2-": 7686,
      "b:": 7687,
      "b型稀釋劑≥": 7688,
      "fr": 7689,
      "h , ": 7690,
      "obzl": 7691,
      "pt": 7692,
      "’-": 7693,
      "一氧化": 7694,
      "一鈉鹽": 7695,
      "三乙氧": 7696,
      "三溴化": 7697,
      "乙酸鹽酸鹽": 7698,
      "乳清": 7699,
      "二咪唑": 7700,
      "二氟苯": 7701,
      "二核苷": 7702,
      "亞乙基]": 7703,
      "亞甲基 ] - ": 7704,
      "司他": 7705,
      "含b型稀釋劑≥": 7706,
      "單鉀鹽": 7707,
      "四(4-": 7708,
      "大孔": 7709,
      "失水": 7710,
      "對甲酚": 7711,
      "對苯醌": 7712,
      "己基)": 7713,
      "拉明": 7714,
      "正己基": 7715,
      "氟 ": 7716,
      "氮烷": 7717,
      "氯丙酸": 7718,
      "烷烴": 7719,
      "癸烯": 7720,
      "發泡": 7721,
      "睪丸": 7722,
      "石蠟": 7723,
      "硒代": 7724,
      "碳酸 ": 7725,
      "羥苯基)": 7726,
      "肆(": 7727,
      "胍基": 7728,
      "膦酸酯": 7729,
      "膽酸": 7730,
      "芳烴": 7731,
      "苄胺鹽酸鹽": 7732,
      "苯醚": 7733,
      "苯駢": 7734,
      "茶鹼": 7735,
      "草素": 7736,
      "草酮": 7737,
      "菌胺": 7738,
      "蕓香": 7739,
      "酸式": 7740,
      "酸內酯": 7741,
      "銅酸": 7742,
      "阿托": 7743,
      "雙氫": 7744,
      "雙氯": 7745,
      "雙 - ": 7746,
      "食品": 7747,
      "香酚": 7748,
      "高錳": 7749,
      " - β - d - ": 7750,
      "甲基苯基 ) - ": 7751,
      "甲基苄胺": 7752,
      "甲基丙烯醯": 7753,
      "3-硝基-": 7754,
      "5-苯基": 7755,
      "-2-羥基-": 7756,
      "-2-氧代": 7757,
      " ( h": 7758,
      "基 - ​": 7759,
      "甲氧基 ) - ": 7760,
      "苯基甲基": 7761,
      "[ 1 , 2 , ": 7762,
      "氨基甲基)": 7763,
      "氨基乙腈": 7764,
      "氨基乙磺酸": 7765,
      "1 , 11 - ": 7766,
      "乙基溴": 7767,
      "4,8,": 7768,
      " - 2 - 甲醯胺": 7769,
      "2 , 7 - ": 7770,
      "2 , 2 ": 7771,
      "5 - 四甲基 - ": 7772,
      "5 - 溴 - 4 - ": 7773,
      "l - 谷氨酸 ": 7774,
      "乙酯和2-甲基-2-丙烯酸": 7775,
      "-4-甲醛": 7776,
      "(2-)-": 7777,
      "二氯甲烷": 7778,
      "基]氧基]": 7779,
      "氯化磷": 7780,
      "氯化銠": 7781,
      "甲苯磺酸": 7782,
      "硝基苯甲醛": 7783,
      "硝基苯乙酮": 7784,
      " - 1 - 酮": 7785,
      "1,3-二(": 7786,
      "1,3-二氧": 7787,
      "甲氧基苯甲醯胺": 7788,
      "n - ( 1 , 1 - 二甲基": 7789,
      " 11": 7790,
      "1h - 吲唑": 7791,
      " amb": 7792,
      "吲哚-2-酮": 7793,
      "二甲矽": 7794,
      "羥基苯基 ) ": 7795,
      "乙醇酸": 7796,
      "7 - [ ( ": 7797,
      "7 - [ ( 1": 7798,
      "吡咯烷 ": 7799,
      "2,6-二氯苯": 7800,
      " - 4 - 烯": 7801,
      "n,n-二(": 7802,
      "1h-嘌呤": 7803,
      "o - 異亞": 7804,
      "1 , 2 - 二 ": 7805,
      "2,5-二氟": 7806,
      "3-(3-": 7807,
      "α-溴": 7808,
      "基-4-哌啶酮": 7809,
      "叔丁氧羰基 - l - ": 7810,
      "乙氧基羰": 7811,
      "(s)-3-": 7812,
      "2-丙烯酸丁酯": 7813,
      "二溴 ": 7814,
      "2-溴代": 7815,
      "2-溴-3-": 7816,
      "(r)-3-": 7817,
      "1 , 1 - 二甲基 ": 7818,
      "十八烯": 7819,
      "s , s - ": 7820,
      " mb": 7821,
      "[[(2-": 7822,
      "[[3-(": 7823,
      "s,6": 7824,
      "酸二聚體": 7825,
      "基-l-精氨酸": 7826,
      " h ) - ": 7827,
      "硫化物": 7828,
      "苯氧基苯": 7829,
      "醋酸乙酯": 7830,
      "-18-": 7831,
      "2 - [ 2 - [ ": 7832,
      "1-甲基乙基)-": 7833,
      "1 , 4 - 苯二甲酸": 7834,
      "氨基]-3-": 7835,
      "維生素 e": 7836,
      " 和2 - 甲基 - 2 - 丙烯酸": 7837,
      "1-溴-": 7838,
      "1-溴代": 7839,
      "1 , 2 , 4 - 三氮唑": 7840,
      "順式-3-己烯": 7841,
      "氨基甲醯氯": 7842,
      "月桂酸": 7843,
      "反式-4-(4-": 7844,
      "反式-4-戊基": 7845,
      "(1-)": 7846,
      " - ​5 - ": 7847,
      "9,10-二氫-": 7848,
      "r - ( ) - ": 7849,
      "n , n - 雙 ( 2 - ": 7850,
      "-2,4,": 7851,
      " - 1 , 6 - ": 7852,
      "三甲基矽烷基)": 7853,
      "二甲酯與": 7854,
      "2 - 甲基 - 2 - 丙烯酸 甲酯": 7855,
      "4-硝基苯基": 7856,
      "9,9-二甲基": 7857,
      "2,2,6,6-四甲基哌啶": 7858,
      "三 ( 羥甲基 ) ": 7859,
      "mbt": 7860,
      "三乙基矽": 7861,
      "三胺五": 7862,
      "3,7-二甲基-2,6-辛二烯": 7863,
      "二硫代氨基甲酸鋅": 7864,
      "e , 3": 7865,
      "1 , 3 , 3 - 三甲基環己烷": 7866,
      "2,4,5-三氟": 7867,
      "矽烷偶聯劑k": 7868,
      "( r ) - ( ) - 1 - ": 7869,
      " 鎓 ": 7870,
      "-2,4-二酮": 7871,
      "不飽和脂肪酸": 7872,
      "10 , 1 ": 7873,
      "嵌段的聚合物": 7874,
      "人蔘皂甙": 7875,
      "2 - ​甲基 - ​ ": 7876,
      ":2)": 7877,
      "二氫 - 2 - 氧代 - ": 7878,
      "5-異氰酸基-1-(": 7879,
      "lt-e": 7880,
      "氧 ) ] 雙 [ 乙醇 ] 的聚合物": 7881,
      "8-氧代-5-硫雜-1-氮雜雙環[4.2.0]辛-2-烯": 7882,
      "n,n-二異丙基)": 7883,
      "4a , 5 , ": 7884,
      "2.2.2]辛烷": 7885,
      "2h - 環戊并 [ b ] 呋喃 - 2 - 酮": 7886,
      "與2-甲基-2-丙烯酸丁酯、2-甲基-2-丙烯酸2-(二甲基胺基)乙酯、2-甲基-2-丙烯酸": 7887,
      "4 , 5 - 二氫 - 3 - 甲基 - 5 - ": 7888,
      "1,1,1-三氟-n-[(三氟甲基)磺醯基]": 7889,
      "乙內醯脲": 7890,
      "自由基": 7891,
      "4 , 4 , 5 , 5 - 四甲基 - ": 7892,
      "rel-(1r,2r,4r)-1,7,7-三甲基": 7893,
      "4 , 4 , 5 , 5 - 四甲基 - 1 , 3 , 2 - ": 7894,
      " 甲基 - ": 7895,
      " 內酯": 7896,
      " 菌素": 7897,
      " yl": 7898,
      "(0": 7899,
      "(二": 7900,
      "(基)": 7901,
      "(10": 7902,
      ")二": 7903,
      ")與": 7904,
      "-5,6-": 7905,
      "25 - ": 7906,
      "3a,": 7907,
      "86": 7908,
      "ae": 7909,
      "e)": 7910,
      "hm": 7911,
      "rl": 7912,
      "r(+)-": 7913,
      "s ) ": 7914,
      "ser": 7915,
      "usp": 7916,
      "y-": 7917,
      "、1,6-己二醇": 7918,
      "三磺酸": 7919,
      "三乙胺": 7920,
      "三水合": 7921,
      "三【口井】": 7922,
      "二苯二": 7923,
      "亞麻": 7924,
      "亮藍": 7925,
      "他命": 7926,
      "六亞甲基": 7927,
      "化酶": 7928,
      "單水": 7929,
      "噁茂": 7930,
      "四烯": 7931,
      "基胺": 7932,
      "塑料": 7933,
      "子油": 7934,
      "子糖": 7935,
      "對二": 7936,
      "對甲": 7937,
      "巰基-1-": 7938,
      "己基-": 7939,
      "己基 ) - ": 7940,
      "戊基-": 7941,
      "新戊": 7942,
      "普利": 7943,
      "橙花": 7944,
      "次磺醯胺": 7945,
      "氧]": 7946,
      "氧基]-": 7947,
      "氨乙基": 7948,
      "氯芐": 7949,
      "氰 ": 7950,
      "溴銨": 7951,
      "溴乙醯": 7952,
      "滴滴": 7953,
      "番瀉": 7954,
      "磺化": 7955,
      "立索": 7956,
      "精氨酸 ": 7957,
      "羥脯氨酸": 7958,
      "羰基]-": 7959,
      "肌醇": 7960,
      "胺甲酸": 7961,
      "膦 ": 7962,
      "與氯乙烯": 7963,
      "芐氯": 7964,
      "芐溴": 7965,
      "萃取物": 7966,
      "蝶啶": 7967,
      "螢光": 7968,
      "辛胺": 7969,
      "鄰羥基苯": 7970,
      "酮基": 7971,
      "酮戊二酸": 7972,
      "醯基-": 7973,
      "銅(ii)": 7974,
      "銠 ( i )": 7975,
      "雙鹽酸鹽": 7976,
      "雙環戊二烯": 7977,
      "離胺酸": 7978,
      "非那": 7979,
      "高效": 7980,
      " - 4 , 5 - ": 7981,
      "甲基聯苯": 7982,
      "甲基乙烯基": 7983,
      "2-[(4-": 7984,
      ", 鈉鹽": 7985,
      "( 9": 7986,
      "基)二茂鐵": 7987,
      "1-苯": 7988,
      "1-羥基": 7989,
      "1-側氧": 7990,
      "1,9-": 7991,
      "2,4": 7992,
      "-2-胺": 7993,
      "-2-甲醯胺": 7994,
      "4 - 羥基 ": 7995,
      "3 - 吡啶": 7996,
      "二甲基 ( ": 7997,
      "1 - 氧代 ": 7998,
      "苯基甲基 ) ": 7999,
      "甲酸叔丁酯": 8000,
      "氨基乙基": 8001,
      "氨基甲烷": 8002,
      "4,3-": 8003,
      " - 2 - 醇": 8004,
      "5 - 羥基 - ": 8005,
      "三氟硼酸鉀": 8006,
      "乙醯基]": 8007,
      "l - 丙氨酸": 8008,
      "羥基吡啶": 8009,
      "乙酯 、": 8010,
      "叔丁基)": 8011,
      "-1-甲基-": 8012,
      "基]-5-": 8013,
      "6 - 甲氧基 - ": 8014,
      "氯化釕": 8015,
      "氯化鈀": 8016,
      "氯化鎳": 8017,
      "氧化鎂": 8018,
      "n , n - 二甲胺": 8019,
      "10,": 8020,
      "甲氧基乙基)": 8021,
      "7-氧代-4-": 8022,
      "s ) - 2 - ": 8023,
      "乙氧基 ] ": 8024,
      "苯胺鹽酸鹽": 8025,
      "4 , 8 , ": 8026,
      "磺醯亞胺": 8027,
      "-5-羥基-": 8028,
      "甲氧基苯乙酸": 8029,
      "5,5": 8030,
      "磷酸三": 8031,
      " - 3 - 基 ) - ": 8032,
      "1,2-乙二": 8033,
      "甲基苯腈": 8034,
      "r , 4 ": 8035,
      "9-蒽": 8036,
      " - 4 - 羧酸": 8037,
      "硝基三氟甲苯": 8038,
      "n,n-雙(2-": 8039,
      "二乙醚": 8040,
      "二乙胺基": 8041,
      "5 , 6 ] ": 8042,
      "o-叔丁基-l-": 8043,
      " 24": 8044,
      "4,5-二氯": 8045,
      "苯甲酸 ": 8046,
      "3,3-二甲基-": 8047,
      "10-四": 8048,
      "2,2'-雙(": 8049,
      " mm": 8050,
      "2h - 苯并三唑": 8051,
      "n - [ 2 - ( ": 8052,
      "酸二鈉鹽": 8053,
      " 36": 8054,
      "二氫 - 5h - ": 8055,
      " 二鈉鹽": 8056,
      "甲基-1-哌嗪": 8057,
      "芴甲氧羰基-": 8058,
      " 基 ] - 2 - ": 8059,
      "全氟辛烷": 8060,
      "二 ( 4 - ": 8061,
      "cbs": 8062,
      "-1,4-二酮": 8063,
      "2-氟-3-": 8064,
      "基)氧基]-": 8065,
      "de]": 8066,
      "氧雜環丁烷": 8067,
      "1,6-己二胺": 8068,
      "1h , 3h ) - ": 8069,
      "噁唑啉": 8070,
      "三氟甲基苯甲酸": 8071,
      "對硝基苯胺": 8072,
      "1,2,4,5-": 8073,
      "8 ]": 8074,
      "6,7-二": 8075,
      "6,7,8,": 8076,
      "tris": 8077,
      "d ] 咪唑": 8078,
      " 90": 8079,
      "3 - [ 2 - ( ": 8080,
      "促進劑z": 8081,
      "紫外吸收": 8082,
      "氮雜環丁酮": 8083,
      "[(1r)-": 8084,
      "2 , 4 , 6 - 三 ": 8085,
      "3h ) - 異苯并呋喃酮": 8086,
      "ω - 羥基 - ": 8087,
      "o,o": 8088,
      "耐曬 ": 8089,
      "十八烷酸": 8090,
      "(1r,2r)-": 8091,
      "氫溴酸": 8092,
      "引發之聚合物": 8093,
      "丙二腈": 8094,
      "二 - 4 , 1 - 伸": 8095,
      "1 , 6 - 己二醇": 8096,
      "1 , 6 - 己二胺": 8097,
      "苯基-1-丙醇": 8098,
      " - 2 - 甲酸鈉鹽": 8099,
      "亞甲基 - 1h - 茚": 8100,
      "二乙氧基矽烷": 8101,
      "epsil": 8102,
      "3 , 4 , 4 , 4 - ": 8103,
      "替尼中間體": 8104,
      "硫酸氫鈉": 8105,
      " iii": 8106,
      "2-甲基-2-丙烯酸甲酯、": 8107,
      "異硫氰酸苯酯": 8108,
      "n - 芐基 - ": 8109,
      "( s ) - ( ) - 2 - ": 8110,
      "阻燃劑 ": 8111,
      "富馬酸": 8112,
      "2 , 4 - 二氯苯基 ) - ": 8113,
      "s , 3r , 5s ) - ": 8114,
      "托品酮": 8115,
      "蘇丹紅": 8116,
      ", 與 1 , 1 , 1 - 三氟 - n - [ ( 三氟甲基 ) 磺醯基 ] 甲磺醯胺鹽 ( 1 : 1 )": 8117,
      "兒茶酚": 8118,
      "2h-環戊[b]呋喃": 8119,
      "-2,6-二酮": 8120,
      "1h - 苯并 [ e ] 吲哚鎓": 8121,
      "3 - ( n - 嗎啉": 8122,
      "his - ": 8123,
      "2-(氯甲基)環氧乙烷": 8124,
      "2h-1-苯并吡喃-2-酮": 8125,
      "抗氧化劑": 8126,
      "( 1s , 2s ) - ( ) - ": 8127,
      "3,5-二(三氟甲基)": 8128,
      "1 ( 3h ) - 異苯并呋喃酮": 8129,
      "4 - 苯基 - 2 - ": 8130,
      ", 99.99": 8131,
      "環四矽氧烷": 8132,
      "α-(2-甲基-1-側氧-2-丙烯-1-基)-ω-甲氧基聚(氧-1,2-乙二基)": 8133,
      "香蘭素": 8134,
      "2 , 2 , 6 , 6 - 四甲基 - 4 - 哌啶": 8135,
      "n-α-(9-": 8136,
      "離子交換樹脂": 8137,
      "o - 叔丁基 - l - ": 8138,
      "1,1'-亞甲基雙[4-異氰酸": 8139,
      "4,4,4-三氟": 8140,
      "-1,3-二側氧-5-異苯并呋喃": 8141,
      "21h , 23h - 卟吩": 8142,
      " - 2 , 4 , 6 ( 1h , 3h , 5h ) - 三酮": 8143,
      "1 , 1 , 2 , 2 , 3 , 3 , 4 , 4 , 4 - ": 8144,
      " - 六氫 - 2 - 側氧 - 3 , 5 - 亞甲基 - 2h - 環戊 [ b ] 呋喃 - 6 - ": 8145,
      "八氫 - ​4 , ​7 - 亞甲基 - ": 8146,
      "立索爾": 8147,
      " 1-": 8148,
      " 酸鹽": 8149,
      " 甲醇": 8150,
      " 80": 8151,
      " 硫酸鹽": 8152,
      " 鉀鹽": 8153,
      "']": 8154,
      "(六水": 8155,
      "(5h)-": 8156,
      "-10": 8157,
      "-β-d-": 8158,
      "16-": 8159,
      "18 , ": 8160,
      "21-": 8161,
      "2(3h)-": 8162,
      "44": 8163,
      "46": 8164,
      "79": 8165,
      "7o": 8166,
      "7h-": 8167,
      "85": 8168,
      "be": 8169,
      "bo": 8170,
      "c)": 8171,
      "dn": 8172,
      "d-2-": 8173,
      "r, ": 8174,
      "s(": 8175,
      "ε-": 8176,
      "三亞甲基": 8177,
      "三環己基": 8178,
      "三甲基-1-": 8179,
      "丹寧": 8180,
      "乙叉": 8181,
      "乙脂": 8182,
      "乙銨": 8183,
      "五氯": 8184,
      "偏苯三": 8185,
      "十二胺": 8186,
      "十二酸": 8187,
      "占噸": 8188,
      "可濕": 8189,
      "可溶性": 8190,
      "吩惡嗪": 8191,
      "吶醇酯": 8192,
      "啉-3-酮": 8193,
      "四苯": 8194,
      "四羥基-": 8195,
      "四亞甲基": 8196,
      "基甲氧基)": 8197,
      "巰基 ": 8198,
      "己烯-1-醇": 8199,
      "斯的": 8200,
      "新戊二醇": 8201,
      "正-": 8202,
      "正己": 8203,
      "氟里": 8204,
      "氧基苯甲酸": 8205,
      "氫鈉": 8206,
      "氮 ": 8207,
      "氯甲苯": 8208,
      "氯甲基 ) ": 8209,
      "溴甲烷": 8210,
      "溴二苯醚": 8211,
      "炭黑": 8212,
      "異丙烯": 8213,
      "百里": 8214,
      "的]": 8215,
      "矽油": 8216,
      "硝苯": 8217,
      "聚苯乙烯": 8218,
      "肼基": 8219,
      "膦 ) ": 8220,
      "膽酸鈉": 8221,
      "色澱": 8222,
      "苄基-2-": 8223,
      "苝艷": 8224,
      "茉莉": 8225,
      "草醯": 8226,
      "莨菪": 8227,
      "萘 ": 8228,
      "萘-1-": 8229,
      "萘二酚": 8230,
      "諾酮": 8231,
      "辣椒": 8232,
      "酚醛": 8233,
      "鉬酸銨": 8234,
      "鋯 ( iv )": 8235,
      "錫(ii)": 8236,
      "鐵(iii)": 8237,
      "長春": 8238,
      "雙氧": 8239,
      "香芹": 8240,
      "高純": 8241,
      " - 10": 8242,
      "甲基亞": 8243,
      "甲基苯基 ) ": 8244,
      "甲基丙烯醯胺": 8245,
      "2-乙氧": 8246,
      "2-氟苯": 8247,
      "2-乙氧基": 8248,
      "4-乙醯胺": 8249,
      "4-乙炔": 8250,
      "3-甲基苯": 8251,
      "2 - 脫氧 - ": 8252,
      "基)酯": 8253,
      "基)乙醇": 8254,
      "1-氟": 8255,
      "1-氨基-2-": 8256,
      "2,5,": 8257,
      "2,1,3-苯并": 8258,
      "n - 羥基": 8259,
      "n - 丁基 - ": 8260,
      "n - 苄基 - ": 8261,
      "3 - [ [ ": 8262,
      "n-甲基-4-": 8263,
      "1 , 9 - ": 8264,
      "1 , 1 , 3 , 3 - ": 8265,
      "5 - 異氰酸": 8266,
      "5 - 氯 - ": 8267,
      "吡啶并 [ ": 8268,
      "吡啶二羧酸": 8269,
      "基 ) 苯基 ] - ": 8270,
      "環己基)苯": 8271,
      "l-酪氨酸": 8272,
      "苯并氮雜卓": 8273,
      "(2-氰": 8274,
      " ] 異喹啉": 8275,
      "基]苯": 8276,
      "氨基-5-": 8277,
      "甲苯酚": 8278,
      "10h-": 8279,
      "n,o-": 8280,
      "磺醯氟": 8281,
      "雙(三甲基矽基)": 8282,
      "r ) - 3 - 羥基 - ": 8283,
      "1,3-二氧雜": 8284,
      "甲氧基苯硼酸": 8285,
      "4'-(": 8286,
      "5,5',": 8287,
      "磷酸二": 8288,
      "甲基-2-丙烯酸酯": 8289,
      " at": 8290,
      " ar ) - ": 8291,
      "吲哚-2-羧酸": 8292,
      "二苯基-1-": 8293,
      "二苯硫醚": 8294,
      "r , 6 ": 8295,
      "7 - 甲氧基 - ": 8296,
      "氨基苯磺酸": 8297,
      "氨基苯甲醚": 8298,
      "吡咯烷甲醇": 8299,
      "3,4-(": 8300,
      "環氧丙酯": 8301,
      " 基 - 2 - ( ": 8302,
      "硫酸鎂": 8303,
      "1h-吲唑": 8304,
      "2,2-二甲基-": 8305,
      "( s ) - 2 - ( ": 8306,
      "5 , 20 - ": 8307,
      "(1:2)": 8308,
      "叔丁氧羰基-l-": 8309,
      "二氟化": 8310,
      "偶氮 ] ": 8311,
      " th": 8312,
      "1,12-": 8313,
      "氧基)苯": 8314,
      "甘油三": 8315,
      " dp": 8316,
      " ds": 8317,
      "6 , 11 , ": 8318,
      " 29": 8319,
      "3,3-三甲基-": 8320,
      "叔丁基膦": 8321,
      "2 , 2 - 雙 ( ": 8322,
      "2 , 2 - 二甲基 ": 8323,
      "9,12-": 8324,
      "對甲苯磺酸酯": 8325,
      " rl": 8326,
      "六氟 ": 8327,
      "六氟丙烷": 8328,
      " min": 8329,
      "β-萘": 8330,
      "( 1→": 8331,
      "n - [ 4 - ( ": 8332,
      "2h-1,4-": 8333,
      "六氫 - 5 - ": 8334,
      "-1,2-二甲酸": 8335,
      "硫化 ": 8336,
      "1 - ( 3 - ": 8337,
      "雙[(2-": 8338,
      "乙基 - n , n - 二異丙基 ) ": 8339,
      "2,4,6-三氯": 8340,
      "5,6-三氯": 8341,
      "n,n'-二(": 8342,
      "1 , 4 - 二 ": 8343,
      "3-溴-2-": 8344,
      "cbs-": 8345,
      "c18": 8346,
      "c16-": 8347,
      "n-甲基氨基甲酸酯": 8348,
      "氫化 ": 8349,
      "還原黑": 8350,
      "3-甲基丁酸": 8351,
      "雙酚 a": 8352,
      "( - ) - 2 - 氨基 - ": 8353,
      "[4-(2-": 8354,
      "二氯苯 基 ) - ": 8355,
      "脂肪酶": 8356,
      "環戊二烯基)": 8357,
      "2 , 3 , 5 , 6 - ": 8358,
      "二磺酸二鈉鹽": 8359,
      " s , 8": 8360,
      "月桂酸酯": 8361,
      "封端的聚合物": 8362,
      "3,3'-二氯": 8363,
      "n-乙醯基-": 8364,
      "2,4-二氯-5-": 8365,
      "2,4-二氯苯基)": 8366,
      "inap": 8367,
      "棕櫚醯": 8368,
      "胺基]-1-": 8369,
      "[(1r,2": 8370,
      "n , n , n , n - 四甲基 ": 8371,
      "預分散 t": 8372,
      "碘代苯": 8373,
      "三氟甲烷磺酸酯": 8374,
      "(1s,4": 8375,
      "硝基苯基)偶氮]": 8376,
      "磷醯膽鹼": 8377,
      "n - 苄氧羰基 - d - ": 8378,
      "1 , 1 - 二甲基乙基 ) ": 8379,
      "1 , 1 - 二甲基乙基 ) - ": 8380,
      "鄰氯扁桃酸": 8381,
      "n-苄氧羰基-": 8382,
      "n-苄氧羰基-d-": 8383,
      " ( 2 - ) - ": 8384,
      " 烷基 ": 8385,
      "9h - 茀 - 9 , 9 - ": 8386,
      "二氯化鈀 ( ii )": 8387,
      "( r ) - ( ) - 2 - ": 8388,
      "alpha,alpha-": 8389,
      "茚滿酮": 8390,
      " 并 ": 8391,
      "二甲氧基 - 2 - ": 8392,
      "[1,1'-聯苯]-": 8393,
      "[1,1'-聯苯]-4-": 8394,
      "4 , 7 - 亞甲基 - 1h - 茚": 8395,
      "硫雜 - 1 - 氮雜雙環 [ 320 ] 庚烷": 8396,
      "蘋果酸": 8397,
      "29h,31h-": 8398,
      "光引發劑 ": 8399,
      "r , ​5": 8400,
      "富馬酸鹽": 8401,
      "二苯并[b,e]": 8402,
      "12a - 八氫": 8403,
      "[1,1'-聯環己烷": 8404,
      "3,7]癸": 8405,
      "1,3-苯二甲酸與": 8406,
      "29h , 31h - 酞青": 8407,
      "四氫-2h-吡喃-2-": 8408,
      "反,反": 8409,
      "1 , 4 , 4a , 5 , ": 8410,
      "紫羅蘭": 8411,
      "氯吡格雷": 8412,
      "1''-三聯苯": 8413,
      "六氟銻酸鹽": 8414,
      "人蔘皂苷 r": 8415,
      "7 - 氧代 - 4 - 硫雜 - 1 - 氮雜雙環 [ 320 ] 庚烷": 8416,
      "9h-茀-9-亞基": 8417,
      "5a , 6 , 11 , ": 8418,
      "氰乙基 ) - ( ": 8419,
      "n , n - 二乙基乙胺的化合物": 8420,
      "雙(4,1-伸苯基": 8421,
      "2',4',6'-": 8422,
      "% (metals basis)": 8423,
      "5 , 10 , 15 , 20 - ": 8424,
      "(六水)": 8425,
      "氟里昂": 8426,
      "乙基 - n , n - 二異丙基 ) 亞磷醯胺": 8427,
      "9h - 茀 - 9 , 9 - 二丙酸": 8428,
      "1 , 4 , 4a , 5 , 5a , 6 , 11 , ": 8429,
      "1 , 4 , 4a , 5 , 5a , 6 , 11 , 12a - 八氫": 8430,
      " 棕": 8431,
      " 醚": 8432,
      " r , ": 8433,
      " 氨酸鹽酸鹽": 8434,
      " 磺酸 ": 8435,
      "(一水": 8436,
      "-n": 8437,
      "-3,5-": 8438,
      "-4,5-": 8439,
      "-80": 8440,
      "0 - ": 8441,
      "15,": 8442,
      "14 ": 8443,
      "2 -": 8444,
      "21h,": 8445,
      "23h-": 8446,
      "37": 8447,
      "48": 8448,
      "57": 8449,
      "6b": 8450,
      "6(1h,3h,5h)-": 8451,
      "ab": 8452,
      "bl": 8453,
      "binap": 8454,
      "cd": 8455,
      "ih": 8456,
      "l ( ) - ": 8457,
      "m - ": 8458,
      "ob": 8459,
      "py": 8460,
      "r ( ) - ": 8461,
      "s9": 8462,
      "sy": 8463,
      "ul": 8464,
      "}-": 8465,
      "​ 1": 8466,
      "′-": 8467,
      "三[": 8468,
      "三環[": 8469,
      "三環[3.3.1.1": 8470,
      "乙磺酸鈉": 8471,
      "乳酸 ": 8472,
      "二芴": 8473,
      "二氧代": 8474,
      "二呋喃": 8475,
      "五乙酸酯": 8476,
      "古洛": 8477,
      "和苯酚的聚合物": 8478,
      "唑酮": 8479,
      "啰啉": 8480,
      "四乙酯": 8481,
      "四氨合": 8482,
      "均三甲苯": 8483,
      "基碳酸酯": 8484,
      "嫩黃": 8485,
      "季銨鹽": 8486,
      "尼泊": 8487,
      "工業": 8488,
      "戊酸甲酯": 8489,
      "拉坦": 8490,
      "核酸": 8491,
      "桂皮": 8492,
      "次甲基": 8493,
      "母核": 8494,
      "氟康唑": 8495,
      "氧自由基": 8496,
      "氨乙基)": 8497,
      "氯銨": 8498,
      "氯乙烷": 8499,
      "氯甲基)-": 8500,
      "氰苄": 8501,
      "氰苯": 8502,
      "溴酸": 8503,
      "熒烷": 8504,
      "環丁": 8505,
      "環烷酸": 8506,
      "用)": 8507,
      "異辛基": 8508,
      "異煙酸": 8509,
      "砒啶": 8510,
      "硫辛酸": 8511,
      "磺 ": 8512,
      "細胞": 8513,
      "羥甲基 - ": 8514,
      "羥乙基 ": 8515,
      "羥甲基 ) - 2 - ": 8516,
      "聯苯二": 8517,
      "胱氨酸": 8518,
      "胺)": 8519,
      "胺]": 8520,
      "胺基)": 8521,
      "芐醇": 8522,
      "苯甲基 ": 8523,
      "菲啶": 8524,
      "賴氨醯 - l - ": 8525,
      "辛炔": 8526,
      "金(i)": 8527,
      "鈦(iv)": 8528,
      "鈦 ( iv )": 8529,
      "鉬酸鈉": 8530,
      "鋶 , ": 8531,
      "錫烷": 8532,
      "阻聚": 8533,
      "餾分": 8534,
      "鳥氨酸 ": 8535,
      "龍腦": 8536,
      " - 2 , 4 - ": 8537,
      " - 15": 8538,
      " - 4 ( ": 8539,
      "甲基丙烯": 8540,
      "甲基磺醯胺": 8541,
      "甲基氨基)": 8542,
      "甲基硫代)": 8543,
      "2-羥基苯": 8544,
      "( ( ": 8545,
      "4-[(4-": 8546,
      "4-叔丁基苯": 8547,
      "3-氧代": 8548,
      "3-苯基-": 8549,
      "3-巰基": 8550,
      "基)]": 8551,
      "1-丙烯": 8552,
      "1-乙基-": 8553,
      "-2-甲基-": 8554,
      "-2-吡啶": 8555,
      " ( 4 - ": 8556,
      "4 - 硝基 - ": 8557,
      "n-甲基-1-": 8558,
      "1 - 甲基 - 2 - ": 8559,
      "苯基丁酸": 8560,
      "[ 1 , 1 - 聯苯 ] - ": 8561,
      "氨基嘧啶": 8562,
      "1 , 2 ": 8563,
      "1 , 3 , 4 , 6 - ": 8564,
      " - 2 - 胺": 8565,
      " - 2 - 萘酚": 8566,
      "2 , 含a型稀釋劑≥": 8567,
      "吡啶二甲酸": 8568,
      "三氟甲基 ": 8569,
      "三氟甲磺酸鹽": 8570,
      "磺酸二鈉鹽": 8571,
      "羥基甲基 ) - ": 8572,
      "羥基乙基)-": 8573,
      "叔丁醇": 8574,
      "叔丁基 ) ": 8575,
      "3 , 7 , ": 8576,
      "二氯乙烯": 8577,
      "苯甲酸鹽": 8578,
      "氯化氫": 8579,
      "氯化鉻": 8580,
      "甲苯基 ": 8581,
      "氧化亞": 8582,
      "n , n - 二苯基 - ": 8583,
      "甲氧基乙氧基)": 8584,
      "咪唑-2-": 8585,
      "吡咯并 [ 3 , 4 - ": 8586,
      " - 1 - 甲基 - ": 8587,
      " - 1 - 基 ) - ": 8588,
      "4 , 7 , ": 8589,
      "磺醯基)-": 8590,
      "磺醯基 ) - ": 8591,
      "磺醯苯胺": 8592,
      "1,3-苯二酚": 8593,
      "-5-(": 8594,
      "甲基 ] - 2 - ": 8595,
      "呋喃葡萄糖": 8596,
      "甲基)吡咯烷": 8597,
      "哌啶基)": 8598,
      "硫代磷酸": 8599,
      "基-2-(": 8600,
      " as ) - ": 8601,
      " - 3 - 基 ) ": 8602,
      "二甲氨基-": 8603,
      "異丙 ": 8604,
      "1,2-苯二甲酸": 8605,
      "丙酸丁酯": 8606,
      "羥基苯并": 8607,
      "甲基苯 ": 8608,
      "氨基苯磺醯胺": 8609,
      "1 3 - ": 8610,
      "1 s , ": 8611,
      " - 4 - 基 ) - ": 8612,
      "硫酸鉀": 8613,
      "二苯基矽烷": 8614,
      "4-(三氟甲氧基)": 8615,
      "1 , 2 - 二苯基 ": 8616,
      "哌嗪鹽酸鹽": 8617,
      "2-氯-2-": 8618,
      "4,4'-二羥基": 8619,
      "基-4-甲基": 8620,
      "氨醯-": 8621,
      "9 - 側氧 - ": 8622,
      "鹽酸 ": 8623,
      " 基 ) - 4 - ": 8624,
      "反式-1,2-": 8625,
      " dt": 8626,
      "環己烷羧酸": 8627,
      "環己烷二甲酸": 8628,
      "2-丙烯酸與": 8629,
      "2-丙烯酸與2-丙烯酸丁酯、": 8630,
      "鄰苯二甲醯": 8631,
      " - 5 - 羧酸": 8632,
      "氨基)-2-": 8633,
      "n , n - 二甲基 - 1 - ": 8634,
      "叔丁基過氧": 8635,
      "[2-​": 8636,
      "十八烯酸": 8637,
      "2-甲基-4-": 8638,
      " en": 8639,
      "溴苯酚": 8640,
      " rr": 8641,
      "cis": 8642,
      "beta - 丙氨酸": 8643,
      "二乙基二硫代氨基甲酸": 8644,
      " m - ": 8645,
      "2h - 苯并 [ e ] 吲哚": 8646,
      "酯 的聚合物": 8647,
      "酯 和2 - 甲基 - 2 - 丙烯酸": 8648,
      "六氫-": 8649,
      " 31": 8650,
      "環己基甲酸": 8651,
      "二甲氧基甲基": 8652,
      "硫化劑": 8653,
      "雙[2-(": 8654,
      "三(三苯基膦)": 8655,
      "碘化銨": 8656,
      "5-溴吡啶": 8657,
      "-17-": 8658,
      "9 , 12 - ": 8659,
      "乙炔基)": 8660,
      "n,n-二甲基甲醯胺": 8661,
      " 氧基 ": 8662,
      "二氯化物": 8663,
      "氟化銨": 8664,
      "-1,4-二": 8665,
      "活性藍": 8666,
      "3-羥基-2-萘": 8667,
      "4-氨基-2-": 8668,
      "乙醯基殼": 8669,
      "丙氧基)-": 8670,
      "鄰苯二甲酸二異": 8671,
      "2,2,4,": 8672,
      "n - 叔丁氧羰基 ": 8673,
      "溶劑橙": 8674,
      "n - 甲基 - 4 - ": 8675,
      "-9-酮": 8676,
      "asp": 8677,
      "( 2s , 5r , 6": 8678,
      "2 , 3 , 4 , 6 - ": 8679,
      "檸檬酸鹽": 8680,
      "苯基 ] 雙 [ ω - ": 8681,
      "n-叔丁氧羰基": 8682,
      "促進劑 z": 8683,
      "橡膠防老劑 ": 8684,
      "cbz-": 8685,
      "cbz - ": 8686,
      " 60": 8687,
      "正丁胺": 8688,
      " na": 8689,
      " 醯 - ": 8690,
      "s)-2-(": 8691,
      "1-萘基)": 8692,
      "2-乙基己酯": 8693,
      "1,2,4-三氮唑": 8694,
      "2,6-二氯苯基)": 8695,
      "雙 [ ( ": 8696,
      "-1,2,4-三氮唑": 8697,
      "永固黃": 8698,
      "2-萘磺酸": 8699,
      "r , 4s ) - ": 8700,
      "對苯二胺硫酸鹽": 8701,
      "2 , 4 , 6 - 三": 8702,
      "硼酸頻吶醇酯": 8703,
      "基苯基醚": 8704,
      "6 , 7 , 8 - ": 8705,
      "n , n , n , n - 四": 8706,
      "三氟甲基 ) 苯基 ] ": 8707,
      "天冬醯胺酸": 8708,
      " 基苯基 ) ": 8709,
      "二 - o - ": 8710,
      " 單鹽酸鹽": 8711,
      "2,2-二甲基-1,3-二氧戊環": 8712,
      "丙二酸二甲酯": 8713,
      "n-boc-4-": 8714,
      "十八碳烯": 8715,
      "十八碳二烯": 8716,
      "1,3-雙(2,4,6-三甲基苯基)": 8717,
      "四苯基卟啉": 8718,
      " ( iii ) 水合物": 8719,
      "(±)-2-": 8720,
      "二異丁基": 8721,
      "n - 芴甲氧羰基 - l - ": 8722,
      "二乙二醇單": 8723,
      "基苯并噻唑": 8724,
      "二氮雜菲": 8725,
      "n-芴甲氧羰基-l-": 8726,
      " - 1 - 苯并吡喃 - 4 - 酮": 8727,
      "矽烷偶聯劑yd": 8728,
      "e,3": 8729,
      "(vi)": 8730,
      "十五烷": 8731,
      "并[3,4-b]": 8732,
      "阿拉伯糖": 8733,
      "100%]": 8734,
      "亞硫酸鉀": 8735,
      "叔-丁": 8736,
      "4 - 甲基傘形酮": 8737,
      "2,3,6-四氫": 8738,
      "(1h,3h)-": 8739,
      "吡咯啶酮": 8740,
      " - 2 , 3 - 二酮": 8741,
      "異丁烯酸酯": 8742,
      "5-異氰酸-1-(": 8743,
      "( 6r , 7r ) - 7 - [ ": 8744,
      "胡蘿卜": 8745,
      "順丁烯二醯亞胺": 8746,
      "2 - 甲基 - ​2 - 丙烯酸酯 , ": 8747,
      "[(1-側氧-2-丙烯-1-基)氧]": 8748,
      "n , n - 二甲基 - 2 - 丙烯醯胺": 8749,
      "lite x": 8750,
      "氯化n , n - 二甲基 - n - [ 2 - [ ( 2 - 甲基 - 1 - 側氧 - 2 - 丙烯 - 1 - 基 ) 氧 ] 乙基 ] - 苯甲銨 ( 1 : 1 ) 與2 - 甲基 - 2 - 丙烯酸丁酯、2 - 甲基 - 2 - 丙烯酸2 - ( 二甲基胺基 ) 乙酯、2 - 甲基 - 2 - 丙烯酸2 - 乙基己酯、": 8751,
      " - 1 , 3 , 5 - 三嗪": 8752,
      "普魯卡因": 8753,
      "2,2,4-三甲基-": 8754,
      "愈創木酚": 8755,
      "grubbs ": 8756,
      " 之 ": 8757,
      "阿托伐他汀": 8758,
      "5 - 溴 - 4 - 氯 - 3 - 吲哚": 8759,
      "n - ( 1 , 1 - 二甲基 - 3 - ": 8760,
      "二甲基 ( 矽氧烷與聚矽氧烷": 8761,
      "二 - 4 , 1 - 伸苯基 ] 雙 [ ω - ": 8762,
      "n-α-(9-茀甲氧羰": 8763,
      "可濕性": 8764,
      "斯的明": 8765,
      "(一水)": 8766,
      "21h,23h-": 8767,
      "吡咯并 [ 3 , 4 - c ] 吡咯": 8768,
      "( 2s , 5r , 6r ) - ": 8769,
      " 氨": 8770,
      " 苷": 8771,
      " 1 - ": 8772,
      " oc": 8773,
      "(一水物": 8774,
      "0 ] ": 8775,
      "1',": 8776,
      "3]": 8777,
      "4 h": 8778,
      "5a": 8779,
      "65": 8780,
      "84": 8781,
      "?)": 8782,
      "det": 8783,
      "oet": 8784,
      "r - 3 - ": 8785,
      "} ": 8786,
      "ˊ-": 8787,
      "β , ": 8788,
      "丁苯": 8789,
      "三-": 8790,
      "丙銨": 8791,
      "乙苯": 8792,
      "二丁": 8793,
      "二基 ) ": 8794,
      "五鈉鹽": 8795,
      "亞基 ": 8796,
      "亮氨醇": 8797,
      "克利": 8798,
      "參 ( ": 8799,
      "參 [ ": 8800,
      "參環 [ 3311 3 , 7 ] 癸": 8801,
      "反-2-": 8802,
      "反丁烯二酸": 8803,
      "可的": 8804,
      "合歡": 8805,
      "和2 - 丙烯酸": 8806,
      "咖啡": 8807,
      "四甲基-2-": 8808,
      "四氮雜": 8809,
      "地爾": 8810,
      "基雙(": 8811,
      "天青": 8812,
      "對 - ": 8813,
      "對羥基苯甲酸": 8814,
      "對叔丁基苯": 8815,
      "正纈氨酸": 8816,
      "氟甲苯": 8817,
      "氧雙(": 8818,
      "氮茚": 8819,
      "汞(ii)": 8820,
      "油溶": 8821,
      "溴苯基 ) - ": 8822,
      "滿酮": 8823,
      "爾酮": 8824,
      "玻璃": 8825,
      "環十二烷": 8826,
      "皮質": 8827,
      "短鏈": 8828,
      "硫甲基 ] - ": 8829,
      "硬酯": 8830,
      "碘 - ": 8831,
      "碳醯": 8832,
      "糠基": 8833,
      "紅貝司": 8834,
      "索拉唑": 8835,
      "綠素": 8836,
      "維a": 8837,
      "維他命": 8838,
      "羥丙基)": 8839,
      "羧基 ": 8840,
      "羧醯胺": 8841,
      "胺醯": 8842,
      "膦酸鈉": 8843,
      "花青": 8844,
      "苯肼": 8845,
      "苯甲酯": 8846,
      "苯乙酯": 8847,
      "苯乙醯胺": 8848,
      "苯丙酮": 8849,
      "萘甲酸": 8850,
      "葫蘆": 8851,
      "蘭索拉唑": 8852,
      "螺二芴": 8853,
      "鄰碘": 8854,
      "鄰二氮雜菲": 8855,
      "酸鋰": 8856,
      "金 ( i )": 8857,
      "金合歡": 8858,
      "鈷胺": 8859,
      "鉻酸鈉": 8860,
      "間甲基": 8861,
      "順丁烯二酸": 8862,
      "2-呋喃": 8863,
      ", p": 8864,
      " , κn3": 8865,
      "( oc": 8866,
      "( 5 ": 8867,
      "4-甲氧基-2-": 8868,
      "4-氰基苯": 8869,
      "3-三氟甲基苯": 8870,
      "基)苯基]": 8871,
      "1-芐": 8872,
      "1-苯基-3-": 8873,
      "1-苄基-3-": 8874,
      "1,3": 8875,
      "1,2,3,": 8876,
      "5-[": 8877,
      "n - 羥基 - ": 8878,
      "-2-甲基-2-": 8879,
      " ( e": 8880,
      "4 - 氯": 8881,
      "4 - 羥基": 8882,
      "4 - 氯 - 3 - ": 8883,
      " ) ​ - ​ ": 8884,
      "甲氧基 ] ": 8885,
      "n-羥": 8886,
      "n-[3-": 8887,
      "二甲基矽氧": 8888,
      "3,5,6-三氯": 8889,
      "1 - 丁": 8890,
      ")-1,1'-聯萘": 8891,
      "6-甲基-2-": 8892,
      "氨基丙醇": 8893,
      "氨基嘌呤": 8894,
      "1 , 1 , 3 - ": 8895,
      "1 , κn3": 8896,
      "甲基-1h-咪唑": 8897,
      "吡啶甲醛": 8898,
      "基 ) ​": 8899,
      "l-丙氨酸": 8900,
      "l-天冬氨酸": 8901,
      "羥基甲基)-": 8902,
      "-3-胺": 8903,
      "基]-4-": 8904,
      "乙烯醚": 8905,
      "(4-甲基苯基)": 8906,
      "氯化膦": 8907,
      "氯化苯": 8908,
      "氯化吡啶": 8909,
      "氧化磷": 8910,
      "氧化膦": 8911,
      "n,n',": 8912,
      "3,5-二氯苯": 8913,
      "1,3-丁二烯": 8914,
      "1,3-異苯并呋喃二酮": 8915,
      "甲氧基苯基": 8916,
      "5,8-": 8917,
      "甲基)環己烷": 8918,
      "甲基)氨基]": 8919,
      "哌啶 ": 8920,
      "甲醯)": 8921,
      "硫代異氰酸酯": 8922,
      "硫代磷醯胺": 8923,
      " a )": 8924,
      " aci": 8925,
      " - 3 - 基 ] ": 8926,
      " - 3 - 甲醯胺": 8927,
      "異丙叉": 8928,
      "羥基苯甲酸甲酯": 8929,
      "硼酸 ": 8930,
      "甲基苯乙烯": 8931,
      "r , 5 ": 8932,
      "氨基苯甲酸甲酯": 8933,
      "beta": 8934,
      "硝基酚": 8935,
      "硫酸銀": 8936,
      "二乙縮醛": 8937,
      "1h-苯并三唑": 8938,
      "o - [ ": 8939,
      "2,2-雙(4-": 8940,
      " s )": 8941,
      "叔丁氧羰基 ": 8942,
      "十二酯": 8943,
      "( r ) - ( - ) - 1 - ": 8944,
      "1 , 3 - 二甲基 - ": 8945,
      "1 , 3 - 二側氧": 8946,
      "1,1':": 8947,
      "4,5-二氫-": 8948,
      "2 - 甲基 - 2 - 丙烯酸 - 2 - ": 8949,
      "s - ( - ) - ": 8950,
      "二氧六環": 8951,
      "n , n - 二甲基乙胺": 8952,
      "叔丁基亞磺醯胺": 8953,
      "[2-[(": 8954,
      "亞甲基)-": 8955,
      " 基 ) 苯 ": 8956,
      " e ": 8957,
      "4-氯苯基": 8958,
      " in ": 8959,
      "三氯 ": 8960,
      "( ) - 2 , 3 - ": 8961,
      "2h - 1 - ": 8962,
      "200": 8963,
      "α - 氫 - ": 8964,
      "苯基]偶氮]": 8965,
      "硫化促進劑 ": 8966,
      "3-氯-5-": 8967,
      "苯氧乙酸": 8968,
      "3 , 3 - 雙 ( ": 8969,
      "9 , κn30": 8970,
      "苯并 [ b ] 噻吩": 8971,
      " - n - 甲基 - l - ": 8972,
      "氨基 ) 吡咯烷": 8973,
      "2h-​": 8974,
      "c16 - ": 8975,
      "c18 ": 8976,
      "c.i. ": 8977,
      "2-羥基-4-": 8978,
      "還原 ": 8979,
      "還原藍": 8980,
      "吡嗪甲醯胺": 8981,
      "直接 ": 8982,
      " 并 [ 4 , 5 - ": 8983,
      "1,3,5-三(": 8984,
      "4 : ": 8985,
      "十一醇": 8986,
      "a,a-": 8987,
      "99%": 8988,
      "二氯苯乙酮": 8989,
      "碳酸鎂": 8990,
      "4-甲基傘形酮": 8991,
      "環戊二烯)": 8992,
      "乙醯丙酮 ) ": 8993,
      "異丁酸酯": 8994,
      "絲氨酸甲酯": 8995,
      "beta - d - 吡喃半乳糖苷": 8996,
      "4-羥基-3-": 8997,
      "3h - 吲哚": 8998,
      "3h - 吡唑": 8999,
      "9,10-二": 9000,
      "1-氯-4-": 9001,
      "四氫呋喃甲酸": 9002,
      "n , n - 二乙基 - ": 9003,
      "-2(3h)-": 9004,
      "r , 5r , 6": 9005,
      "甲矽烷基)": 9006,
      "1 - [ [ ( ": 9007,
      "母膠粒 t": 9008,
      "n , n , n , n - 四甲基 - ": 9009,
      "1h-吡唑-4-": 9010,
      " 黃 g": 9011,
      "五氟苯基酯": 9012,
      " 單水合物": 9013,
      "亞甲二": 9014,
      "3 - [ ( 四氫 - 2h - 吡喃 - 2 - 基 ) 氧": 9015,
      "異亞丙基-": 9016,
      "異噻唑啉酮": 9017,
      "三甲基 雙環 [ ": 9018,
      "4h ) - ": 9019,
      "lys - ": 9020,
      "薄荷酯": 9021,
      "薄荷醇": 9022,
      "庚烯醛": 9023,
      "sp - 4 - ": 9024,
      "(1h-1,2,4-三唑": 9025,
      "n - [ 3 - ( 二甲基胺基 ) ": 9026,
      "聚[氧基": 9027,
      "雙環 [ 221 ] 庚烷": 9028,
      "n , n - 二異丙基 ": 9029,
      "二氯化鈀(ii)": 9030,
      "環 [ 3311": 9031,
      "光穩定劑": 9032,
      "b : 2 , 3 - ": 9033,
      "2 , 2 - 二甲基 - 1 , 3 - 二氧戊環": 9034,
      "環氧乙烷基甲基 ": 9035,
      "-1-基甲基)-": 9036,
      "磷酸氫二鈉": 9037,
      "并[3,4-c]": 9038,
      "1-乙基-3-甲基咪唑": 9039,
      "4,1-伸苯基]": 9040,
      "c , c - ": 9041,
      "并[2,3-d]嘧啶": 9042,
      "meso-": 9043,
      "脫氫酶": 9044,
      "安息香酸": 9045,
      "硝基苯基 ) 偶氮 ] - ": 9046,
      "5.4.": 9047,
      "κn29 , κn30": 9048,
      "9h-芴-9-基甲氧基)": 9049,
      "4,6-二甲基嘧啶": 9050,
      "環氧乙烷與環氧乙烷的聚合物": 9051,
      "( 3ar , 4r , 5r , 6": 9052,
      "2,2,6,6-四甲基-3,5-庚二酮酸)": 9053,
      "1 , 3 , 4 - 噻二唑": 9054,
      "2-​丙烯酸, 2-​甲基-​": 9055,
      "反式,反式)-4'-": 9056,
      "、1,2-乙二醇、": 9057,
      "3,5,5-三甲基": 9058,
      "5'-o-(4,4'-二甲氧基三苯": 9059,
      "4,5-二氫-3-甲基-5-": 9060,
      "1h-苯并[e]吲哚鎓": 9061,
      "( 5z ) - ": 9062,
      "( e , e ) - ": 9063,
      "n - ( 9 - 芴甲氧羰": 9064,
      "1,1,1,3,3,3-六氟": 9065,
      "2h-環戊并[b]呋喃-2-酮": 9066,
      "氯化n,n-二甲基-n-[2-[(2-甲基-1-側氧-2-丙烯-1-基)氧]乙基]-苯甲銨(1:1)與2-甲基-2-丙烯酸丁酯、2-甲基-2-丙烯酸2-(二甲基胺基)乙酯、2-甲基-2-丙烯酸": 9067,
      "一氫矽烷": 9068,
      "1,1,1-三氟-n-[(三氟甲基)磺醯基]甲磺醯胺鹽": 9069,
      "尼泊金": 9070,
      "可濕性粉劑": 9071,
      "(一水物)": 9072,
      " , κn31 , κn3": 9073,
      "( oc - 6 - ": 9074,
      "κn29 , κn30 , κn31 , κn3": 9075,
      " 劑": 9076,
      " 酸酯": 9077,
      " 二胺": 9078,
      " 氨酸 ": 9079,
      " 中間體": 9080,
      "(9": 9081,
      "(m": 9082,
      "(p": 9083,
      "(s,": 9084,
      "(氯甲基)": 9085,
      "(二水": 9086,
      "(1-甲基乙基)": 9087,
      ")]-": 9088,
      ")​-": 9089,
      ",一水": 9090,
      ",六水": 9091,
      ",99%": 9092,
      "-2,4,6-三": 9093,
      "3'": 9094,
      "3''-": 9095,
      "4r , ​5": 9096,
      "8'-": 9097,
      "[2,3-": 9098,
      "ce": 9099,
      "cz": 9100,
      "d)": 9101,
      "hc": 9102,
      "ide": 9103,
      "l(+)-": 9104,
      "lic": 9105,
      "mo": 9106,
      "ns": 9107,
      "n1 , ": 9108,
      "rc": 9109,
      "rac": 9110,
      "s(-)-": 9111,
      "tpp": 9112,
      "ura": 9113,
      "z,1": 9114,
      "| r , ": 9115,
      "δ - ": 9116,
      "​1h - 茚": 9117,
      "​3-​": 9118,
      "一鈉": 9119,
      "三氫": 9120,
      "並 [ ": 9121,
      "乳糖": 9122,
      "乳酸甲酯": 9123,
      "乳香酸": 9124,
      "亞磷酸酯": 9125,
      "亞乙基 ": 9126,
      "亞苯基)": 9127,
      "亞氨基 ) ": 9128,
      "亞甲基-​": 9129,
      "六六": 9130,
      "參(": 9131,
      "反-1,2-": 9132,
      "叔戊基": 9133,
      "司瓊": 9134,
      "合金": 9135,
      "吐溫": 9136,
      "單酯": 9137,
      "喹哪": 9138,
      "嘧磺隆": 9139,
      "四甲酯": 9140,
      "四氟苯": 9141,
      "四氯 ": 9142,
      "均三嗪": 9143,
      "奎尼": 9144,
      "媒染": 9145,
      "對乙醯": 9146,
      "對二甲": 9147,
      "己酸酯": 9148,
      "戊胺": 9149,
      "探針": 9150,
      "曲霉": 9151,
      "替康": 9152,
      "氟苯基 ) - ": 9153,
      "氟苯甲醛": 9154,
      "氟沙星": 9155,
      "氨酯": 9156,
      "氫銨": 9157,
      "氮-": 9158,
      "汞 ( ii )": 9159,
      "淡黃": 9160,
      "溶纖": 9161,
      "濺射": 9162,
      "瑞林": 9163,
      "環狀": 9164,
      "甲撐": 9165,
      "的酯化物": 9166,
      "第三": 9167,
      "紅霉素": 9168,
      "羥丙基": 9169,
      "膦醯基": 9170,
      "芳樟": 9171,
      "苄氧基)": 9172,
      "苄基苯胺": 9173,
      "莫西": 9174,
      "葉醇酯": 9175,
      "蝶呤": 9176,
      "賴氨醯-l-": 9177,
      "鄰菲": 9178,
      "酚酞": 9179,
      "酮 , ": 9180,
      "酰胺": 9181,
      "銀杏": 9182,
      "鋁酸鈉": 9183,
      "鋯(iv)": 9184,
      "鋰鹽": 9185,
      "鎢酸": 9186,
      "鐵 ( iii ) ": 9187,
      "間氯苯": 9188,
      "阿米": 9189,
      "雙丙酮": 9190,
      "非離子": 9191,
      "高錸": 9192,
      "高苯丙氨酸": 9193,
      "鹽基": 9194,
      "麗春": 9195,
      " - 3 ": 9196,
      " - 11 - ": 9197,
      " - 2 , 4 , 6 - ": 9198,
      "甲基矽": 9199,
      "2-羥乙基": 9200,
      "2-巰基-": 9201,
      ", ​": 9202,
      ", 1-": 9203,
      " , p - ": 9204,
      "( 3 ": 9205,
      "4-氰": 9206,
      "4-胺": 9207,
      "4-羥基苯甲酸": 9208,
      "3-噻吩": 9209,
      "基-6-": 9210,
      "基)苯甲酸": 9211,
      "基)苯酚": 9212,
      "基 酯": 9213,
      "n - 環己基 ": 9214,
      " ) - 1 , 1 - 聯萘": 9215,
      "-2-[": 9216,
      "-2-(4-": 9217,
      "-2-硼酸": 9218,
      "4 - 甲氧基苯": 9219,
      "4 - 噻唑": 9220,
      "3 - 氧代 - ": 9221,
      "甲氧基)-": 9222,
      "n-環己基": 9223,
      "二甲基丙烯酸酯": 9224,
      "1 - 戊烯": 9225,
      "丙烯-​": 9226,
      "苯基丙": 9227,
      "苯基甲基)": 9228,
      "氨基甲苯": 9229,
      "氨基三氟甲苯": 9230,
      "5 - 硝基 - ": 9231,
      "乙醯氨基 ) - ": 9232,
      "乙醯氨基 ] - ": 9233,
      "l-苯丙氨酸": 9234,
      "苯并三嗪": 9235,
      "叔丁基-2-": 9236,
      "3 , 1 ": 9237,
      "3 , 4 , 5 - ": 9238,
      "-1-丙烯": 9239,
      "(2-乙基己基)": 9240,
      "6 - ​ ": 9241,
      "6 - ( 2 - ": 9242,
      "乙烯 ": 9243,
      "乙烯基]": 9244,
      "乙烯 基 ] - ": 9245,
      "氯化苄": 9246,
      "氯化鈣": 9247,
      "-1,8-": 9248,
      "-1,3,2-": 9249,
      "二氫二苯并 [ b , e ] ": 9250,
      "氧化釩": 9251,
      "氧化鐵": 9252,
      "咪唑 [ ": 9253,
      "7-氧": 9254,
      "丙基封端的": 9255,
      "磺醯基 ": 9256,
      "磺醯基]-": 9257,
      "r ) - 2 - 氨基 - ": 9258,
      "1,3-二甲基-": 9259,
      "1,3-丙二": 9260,
      "2,4-二溴": 9261,
      "甲氧基苯甲酸甲酯": 9262,
      "d-丙氨酸": 9263,
      "二 氧代 - ": 9264,
      "硫代苯酚": 9265,
      " ate": 9266,
      "四氫化": 9267,
      "1,2-二(": 9268,
      "丙酸與 ": 9269,
      "環戊醇": 9270,
      "二苯酚": 9271,
      "2-(1-": 9272,
      "嘧啶二酮": 9273,
      "2,3-二氨基": 9274,
      "',α": 9275,
      "7 - 硝基 - ": 9276,
      "氨基苯并": 9277,
      "氨基苯甲醯": 9278,
      " - 4 - 胺": 9279,
      " - 4 - 基 ) ": 9280,
      "2'-(": 9281,
      "噻吩-2-基)": 9282,
      "噻吩 - 2 - 基 ) ": 9283,
      "噻吩并 [ 3 , 2 - ": 9284,
      "2,5-呋喃二酮": 9285,
      "1,4-苯醌": 9286,
      "4,4'-二(": 9287,
      "4,6-雙(": 9288,
      "叔丁氧羰基-": 9289,
      "二氟 - ​ ": 9290,
      "鹽酸氯": 9291,
      "3 - ( 2 - 萘": 9292,
      "( r ) - ( - ) - 3 - ": 9293,
      "1,11-": 9294,
      "甘油醇": 9295,
      "甘油 - 3 - ": 9296,
      "顏料藍": 9297,
      "3,3-二苯基": 9298,
      "乙二醇一": 9299,
      "s - 三嗪": 9300,
      "三氟甲基吡啶": 9301,
      "2-氨基-5-氯": 9302,
      "2 , 2 - 二 ": 9303,
      "3 , 5 - 雙 ( ": 9304,
      "8 - 氯 - ": 9305,
      " 基 ) 乙醯胺": 9306,
      " 基 ) 氧基 ] - ": 9307,
      "s , 6": 9308,
      "4-氯-6-": 9309,
      "溴苯乙酮": 9310,
      "1,1-二氧化物": 9311,
      "beta - 硝基苯乙烯": 9312,
      " i )": 9313,
      "β-丙氨酸": 9314,
      "n - [ 2 - [ ": 9315,
      "嗎啉基": 9316,
      "3 , 4 - 二": 9317,
      "酯 、 ": 9318,
      " 3 ": 9319,
      "二甲氧基聯苯": 9320,
      "萘酚紅": 9321,
      "硫化二": 9322,
      "3-氯-": 9323,
      "芴甲氧羰基 - ": 9324,
      "2,4,6-三(": 9325,
      "甲硫醚": 9326,
      "分散紫": 9327,
      "(2s,3": 9328,
      "9h - 嘌呤": 9329,
      "硝酸鉍": 9330,
      "水楊醯胺": 9331,
      "苄氧羰基 - l - ": 9332,
      " 、1 , 2 - 乙二醇": 9333,
      "苯并呋喃酮": 9334,
      "cbs - ": 9335,
      "-1,4-丁二基)": 9336,
      "十二烷基-": 9337,
      "維生素 d": 9338,
      "還原棕": 9339,
      " 并 [ 4 , 3 - ": 9340,
      " ( 1 : 2": 9341,
      "丙氧基]-": 9342,
      "琥珀醯亞胺基碳酸酯": 9343,
      "順式-4-": 9344,
      "2 , 3 , 4 , ": 9345,
      "-n-甲基-l-": 9346,
      "月桂醇": 9347,
      "八氫-​": 9348,
      "dtp": 9349,
      "rey": 9350,
      "氫氧化鋁": 9351,
      "基)-1-哌嗪": 9352,
      "腺苷-5'-": 9353,
      " - ​1 - ": 9354,
      "苯并噻唑次磺醯胺": 9355,
      "1]壬烷": 9356,
      "dpg": 9357,
      "丁二酸鹽": 9358,
      "過氧化氫": 9359,
      "環己烯 - 1 - 基 ] ": 9360,
      "[ ( 1s , ": 9361,
      "烯丙基醚": 9362,
      "3-氨基丙基)": 9363,
      "樟腦磺酸": 9364,
      "甘露醇": 9365,
      "10,12,": 9366,
      "10,13,1": 9367,
      "1 - [ 3 - ( ": 9368,
      "[3-(4-": 9369,
      " 86": 9370,
      "n - boc - d - ": 9371,
      "n , n , n , n - 四 ": 9372,
      "三氟甲磺酸 ": 9373,
      "雙環[2.2.1]庚烷": 9374,
      "二氮烯基]-": 9375,
      "2 - 羥基乙酯的聚合物": 9376,
      "1 , 2 - 乙二基": 9377,
      "二 - ( ": 9378,
      "三級丁氧羰": 9379,
      "3 - [ ( 2 - ": 9380,
      "對羥基苯甘氨酸": 9381,
      "1,2,3-丙三醇": 9382,
      " - 2 - 羧酸 ": 9383,
      "ω-羥基聚(氧-1,2-乙二基)": 9384,
      "輔酶 q": 9385,
      "n,n,n',n'-四甲基": 9386,
      "4 - 硝基苯基 ": 9387,
      "氨基-1-丁醇": 9388,
      "2,3,4-三": 9389,
      "【口+咢】唑": 9390,
      "2,3,4,5,6-五氟": 9391,
      "r , ​6as": 9392,
      "r , ​4r , ​5": 9393,
      "( 3ar , ​4r , ​5": 9394,
      "叔-丁基": 9395,
      "環戊烯-1-酮": 9396,
      "3',5'-二": 9397,
      "α,α',α": 9398,
      " - 2 , 3 - 二 ": 9399,
      "全氟辛基磺醯胺": 9400,
      "3,5-雙(三氟甲基)": 9401,
      "1h - 四唑 - 5 - 基 ) ": 9402,
      "二環 [ 221 ] 庚 - 2 - 基酯的聚合物": 9403,
      "特戊醯": 9404,
      "乙醛縮二甲醇": 9405,
      "3 - 甲基丁基 ) - ": 9406,
      "3 - ​ [ ( ": 9407,
      "胡蘿蔔": 9408,
      "抑制劑": 9409,
      "色酚as - ": 9410,
      "色酚as-": 9411,
      "磷脂醯": 9412,
      " - 2 , 5 - 二酮": 9413,
      "6 , 11 - 二氫二苯并 [ b , e ] ": 9414,
      "rel - ( 1r , 2r , 4r ) - 1 , 7 , 7 - 三甲基二環 [ 221 ] 庚 - 2 - 基酯的聚合物": 9415,
      " - 2 , 6 - 二酮": 9416,
      "(6r,7r)-7-": 9417,
      "irg": 9418,
      "納夫妥a": 9419,
      "2,5-環己二烯-1-": 9420,
      "不飽和脂肪酸二聚體": 9421,
      "辛可寧": 9422,
      "、α - ( 2 - 甲基 - 1 - 側氧 - 2 - 丙烯 - 1 - 基 ) - ω - 甲氧基聚 ( 氧 - 1 , 2 - 乙二基 ) 、": 9423,
      "潑尼松龍": 9424,
      "己內酯均聚物2-[(2-甲基-1-側氧-2-丙烯-1-基)氧]乙酯的聚合物": 9425,
      "( s , s ) - ": 9426,
      "(e,e)-": 9427,
      " - ​5 - 基 ": 9428,
      "人蔘皂甙 r": 9429,
      "2-甲基-2-丙烯酸甲酯、α-(2-甲基-1-側氧-2-丙烯-1-基)-ω-甲氧基聚(氧-1,2-乙二基)": 9430,
      "八氫 - ​4 , ​7 - 亞甲基 - ​1h - 茚": 9431,
      "紫羅蘭酮": 9432,
      "5-異氰酸-1-(異氰酸甲基)-1,3,3-三甲基環己烷": 9433,
      "21h,23h-卟吩": 9434,
      "可的松": 9435,
      "短鏈聚合物": 9436,
      "uratr": 9437,
      "溶纖劑": 9438,
      "r , ​6as ) ​ -": 9439,
      "( 3ar , ​4r , ​5r , ​6as ) ​ -": 9440,
      " 三": 9441,
      " 4 - ": 9442,
      " 乙酸": 9443,
      " 羧酸": 9444,
      " 酸甲酯": 9445,
      " 乙酸酯": 9446,
      " 一水物": 9447,
      "(1,2-": 9448,
      ")丙烷": 9449,
      ") ] - ": 9450,
      "+)": 9451,
      "-[": 9452,
      "-2,6-二": 9453,
      "-2'-脫氧": 9454,
      "15 , ": 9455,
      "9a - ": 9456,
      "[1": 9457,
      "[雙(": 9458,
      "d ( ) - ": 9459,
      "dl - 2 - 氨基 - ": 9460,
      "ex": 9461,
      "gp": 9462,
      "gs": 9463,
      "mg": 9464,
      "mn": 9465,
      "n2-": 9466,
      "n2 - [ ": 9467,
      "o)": 9468,
      "ot": 9469,
      "obs": 9470,
      "pb": 9471,
      "p , p - ": 9472,
      "sn - ": 9473,
      "tu": 9474,
      "z)-2-": 9475,
      "ⅰ)": 9476,
      "丁基 ] ": 9477,
      "七葉": 9478,
      "丙硫": 9479,
      "丹士林": 9480,
      "乙脒": 9481,
      "乙銨 ": 9482,
      "九氟 - ": 9483,
      "二氰": 9484,
      "二甲氧": 9485,
      "二溴化": 9486,
      "亞基 ] ": 9487,
      "代 ": 9488,
      "來蘇": 9489,
      "依托": 9490,
      "八甲基": 9491,
      "六 ": 9492,
      "六烯": 9493,
      "利福": 9494,
      "卡必": 9495,
      "叔亮氨酸": 9496,
      "和α-氫-ω-羥基": 9497,
      "噻喃": 9498,
      "四鈉": 9499,
      "四 [ ": 9500,
      "固體": 9501,
      "地那": 9502,
      "均三": 9503,
      "基乙醇": 9504,
      "壬酮": 9505,
      "多粘": 9506,
      "大茴香": 9507,
      "對三氟甲氧基苯": 9508,
      "己二": 9509,
      "己環": 9510,
      "斯汀": 9511,
      "有機": 9512,
      "木糖": 9513,
      "杏仁": 9514,
      "查耳": 9515,
      "棗紅": 9516,
      "樹膠": 9517,
      "正己烷": 9518,
      "正十二烷基": 9519,
      "氧 ) ": 9520,
      "氯-1-": 9521,
      "氯乙基 ) ": 9522,
      "水溶液": 9523,
      "洛芬": 9524,
      "漢沙": 9525,
      "烯糖": 9526,
      "烯丙基 ": 9527,
      "烯丙基-": 9528,
      "烯丙基 - ": 9529,
      "物質": 9530,
      "猩紅": 9531,
      "環丁基": 9532,
      "甲酸鹽酸鹽": 9533,
      "異煙": 9534,
      "異戊烯": 9535,
      "皮甙": 9536,
      "皮素": 9537,
      "硫基 ": 9538,
      "硫基]": 9539,
      "磷醯氯": 9540,
      "米諾": 9541,
      "精胺酸": 9542,
      "縮酮": 9543,
      "羥丙": 9544,
      "羧基苯基)": 9545,
      "考馬": 9546,
      "胂酸": 9547,
      "胸腺": 9548,
      "與2-": 9549,
      "與2 - 甲基 - 2 - 丙烯酸 ": 9550,
      "苯偶": 9551,
      "苯硫": 9552,
      "苯氧基)": 9553,
      "蘇氨酸 ": 9554,
      "赤蘚": 9555,
      "鄰羥基苯甲酸": 9556,
      "酞嗪": 9557,
      "酵母": 9558,
      "醋酸 ": 9559,
      "醛縮": 9560,
      "鈷(iii)": 9561,
      "鎳 ( ii ) ": 9562,
      "間硝基": 9563,
      "陰丹士林": 9564,
      "雙硫": 9565,
      "顯影": 9566,
      "黃體": 9567,
      "2-丙基": 9568,
      "2-甲基苯": 9569,
      "2-三氟甲基": 9570,
      ", 5": 9571,
      ", 3-": 9572,
      "4-二甲基": 9573,
      "4-乙烯": 9574,
      "4-甲醯": 9575,
      "4-乙基苯": 9576,
      "4-苯基-2-": 9577,
      "4-硝基-2-": 9578,
      "3-巰": 9579,
      "3-羥基苯": 9580,
      "2 - 氯 - 3 - ": 9581,
      "基)​": 9582,
      "基)胺": 9583,
      "基)雙(": 9584,
      "基)苯基]-": 9585,
      "1-苯基-1-": 9586,
      "1,1,3-": 9587,
      "n - 甲醯": 9588,
      "n - 甲氧基 - ": 9589,
      "n - 對甲苯磺醯": 9590,
      "n - 牛脂": 9591,
      "n - 異丙基 ": 9592,
      "n - 三 ( 羥甲基 ) ": 9593,
      "-2-硫酮": 9594,
      "4 - 氧代 - ": 9595,
      "3 - 甲基 - 2 - ": 9596,
      "二甲基縮醛": 9597,
      "3,4,6-": 9598,
      "苯基乙酸": 9599,
      "苯基溴化鎂": 9600,
      "[ 1 , 1 - ": 9601,
      "氨基乙基)-": 9602,
      "1 , 1 , ": 9603,
      "乙基丙烯酸酯": 9604,
      "4,8-": 9605,
      "2 , 3 , 5 - ": 9606,
      "5 - [ [ ": 9607,
      "吡啶 - n - 氧化物": 9608,
      "三氟甲": 9609,
      "基 ) 胺": 9610,
      "乙酸乙烯酯": 9611,
      "磺酸基-": 9612,
      "羥基封端的": 9613,
      "羥基聚 ( 氧 - 1 , 2 - 乙二基 ) ": 9614,
      "羥基甲基)-2-": 9615,
      "-1-丁醇": 9616,
      "(2-乙基己": 9617,
      "(2-甲基-1-": 9618,
      "甲基 - ​ ": 9619,
      "甲基 - 1 , 2 - 乙二基 ) ": 9620,
      "-3-(4-": 9621,
      "-3-甲醛": 9622,
      "-3-甲醯胺": 9623,
      "基]-2-": 9624,
      "酸酯 ": 9625,
      "乙烯基)-": 9626,
      "氯化銪": 9627,
      "10 ) - ": 9628,
      "甲氧基吡啶": 9629,
      "7-溴": 9630,
      "7-甲氧基": 9631,
      "7-甲氧基-": 9632,
      "丙基胺": 9633,
      "s ) - 2 - ( ": 9634,
      "乙氧基)-": 9635,
      "乙氧基-2-": 9636,
      "d - 丙氨酸": 9637,
      " - 1 - 甲醯胺": 9638,
      "三甲基苯": 9639,
      "氧代 - 3 - ": 9640,
      "1,3-二溴": 9641,
      "-5-基)-": 9642,
      "-5-(2-": 9643,
      "-5-甲醛": 9644,
      "2,4-戊二酮": 9645,
      "甲氧基苯氧基)": 9646,
      "甲氧基苯甲腈": 9647,
      "磷酸二甲酯": 9648,
      "硫代氨基甲酸": 9649,
      "et h": 9650,
      "二甲縮醛": 9651,
      "1,2-環己": 9652,
      "吡喃甘露糖苷": 9653,
      "環戊基酯": 9654,
      "環戊 基 ] - ": 9655,
      "嘧啶酮": 9656,
      "氨基苯基)-": 9657,
      "3,4-二甲氧基": 9658,
      " 基 - 1 , 3 - ": 9659,
      "羥基 - 1 , 11 - ": 9660,
      "1 h , ": 9661,
      "丙烷二醇": 9662,
      "氯苯氧基)": 9663,
      "側氧-1-": 9664,
      "硫酸銨": 9665,
      "硫酸甲酯": 9666,
      "二苯基甲醇": 9667,
      "o - ( 2 - ": 9668,
      "o - ( 4 - ": 9669,
      "2,2-二苯基": 9670,
      "溴化磷": 9671,
      "2-氯-1-": 9672,
      "乙基)胺基]": 9673,
      "4,4'-二溴": 9674,
      "4,6-二(": 9675,
      "喹啉羧酸": 9676,
      "(1→": 9677,
      "二氟 - 4 - ": 9678,
      "葡萄烯糖": 9679,
      "9 - 氟 - ": 9680,
      "( r ) - 4 - ": 9681,
      " tf": 9682,
      " c - ": 9683,
      "丁烯酸": 9684,
      "丁烯酸乙酯": 9685,
      "甘油單": 9686,
      "2-甲基-2-丙烯酸丁酯": 9687,
      " 2b": 9688,
      "2-丙烯酸酯 與 ": 9689,
      "吡唑啉": 9690,
      "2 , 3 - 二 ": 9691,
      "2 , 3 - d ] 嘧啶": 9692,
      "3,3-二氟": 9693,
      "脫氧腺苷": 9694,
      "2,2'-亞甲基": 9695,
      "亞甲基雙 [ ": 9696,
      "3 , 5 - 二": 9697,
      " o ": 9698,
      "-6-磺酸": 9699,
      "三苯基 ) - ": 9700,
      "磷酸酯二鈉鹽": 9701,
      "9,12,": 9702,
      "4-氯-": 9703,
      "溴苯基)-": 9704,
      "六氟化": 9705,
      "六氟磷酸酯": 9706,
      "苄基氯化銨": 9707,
      "二乙基氨基 ) ": 9708,
      " ir": 9709,
      " is": 9710,
      "( 1s ) - ": 9711,
      "嗎啉 ": 9712,
      "2h-1-": 9713,
      "六氫 - 4 - ": 9714,
      " 33": 9715,
      "2 - 丙烯酸酯": 9716,
      "雙[3-(": 9717,
      "2-甲基吡啶": 9718,
      "2-甲基丁酸": 9719,
      "3,5-二叔丁基": 9720,
      "3-氯丙基)": 9721,
      "苯氧基-": 9722,
      "甲硫醇": 9723,
      "甲基 ) 二硫代磷酸酯": 9724,
      "四甲基二矽氧烷": 9725,
      "二 ( 2 - ": 9726,
      " - n - 甲基 ": 9727,
      "氨基]-2-": 9728,
      "2h-苯并三唑": 9729,
      "[(2-甲基-1-": 9730,
      "十二烷基 - ": 9731,
      "甲基]-1,3-": 9732,
      "烯-1-酮": 9733,
      "-​1,​": 9734,
      " 和2 - 丙烯酸": 9735,
      "丙氧基 ) - ": 9736,
      "3',4',": 9737,
      "n - 乙醯基 - l - ": 9738,
      "三乙氧基矽基)": 9739,
      "氧雜 ": 9740,
      "氧雜蒽": 9741,
      "噁唑烷": 9742,
      "6-氯-2-": 9743,
      "( 2z ) - ": 9744,
      "3-氨基-4-": 9745,
      "( ) - 2 - ": 9746,
      "羥甲基脲": 9747,
      "羥甲基哌啶": 9748,
      " 7 ": 9749,
      "二羧酸酐": 9750,
      "3h - 1 , 2 , 4 - 三唑": 9751,
      " 6b": 9752,
      "2,4,6-三碘": 9753,
      "3,3'-二氨基": 9754,
      "1-萘磺酸": 9755,
      "-2-甲基丙酸": 9756,
      "n - ( 4 - 硝基苯": 9757,
      "4 - [ 2 - [ ": 9758,
      "聚(氧-1,4-丁二基)": 9759,
      "酸鈣鹽": 9760,
      "雙 [ ( 2 - ": 9761,
      "樟腦磺": 9762,
      "(4h)-": 9763,
      "2-萘甲酸": 9764,
      "-3,7-": 9765,
      "1 - [ 2 - ( ": 9766,
      "[(1s)-": 9767,
      "[(1e,3": 9768,
      " , 12 ": 9769,
      "1 - 甲基 - 1h - 咪唑": 9770,
      "硼酸頻那": 9771,
      "基苯基硼酸": 9772,
      "9,9-二": 9773,
      "1h - 吲哚 - 5 - ": 9774,
      "二-4,1-伸苯基]": 9775,
      "d]咪唑": 9776,
      "2 - 羥基乙氧基 ) ": 9777,
      "n,n-二異丙基": 9778,
      " 基苯基 ) - ": 9779,
      "三甲銨": 9780,
      "藥膠 t": 9781,
      "5 , 6 - 二氫 - ": 9782,
      "葡糖胺": 9783,
      "1 , 3 , 5 - 三【口井】": 9784,
      "n , n - 二 ( 2 - ": 9785,
      "4h-1-苯并吡喃": 9786,
[...]
